<pad>	0
<bos>	0
<eos>	0
<unk>	0
▁t	-0
▁,	-1
▁a	-2
he	-3
in	-4
▁the	-5
▁的	-6
▁o	-7
re	-8
▁s	-9
er	-10
▁w	-11
▁.	-12
on	-13
▁。	-14
at	-15
▁c	-16
en	-17
▁b	-18
it	-19
is	-20
an	-21
ou	-22
▁f	-23
or	-24
▁p	-25
▁m	-26
▁an	-27
es	-28
▁of	-29
▁to	-30
ing	-31
ed	-32
▁in	-33
al	-34
▁d	-35
▁h	-36
ar	-37
▁and	-38
ic	-39
le	-40
ion	-41
▁th	-42
as	-43
om	-44
ot	-45
os	-46
▁一	-47
▁&	-48
▁n	-49
▁l	-50
ent	-51
▁我	-52
▁e	-53
ll	-54
ve	-55
▁y	-56
▁re	-57
▁be	-58
ap	-59
▁在	-60
▁g	-61
us	-62
ct	-63
▁you	-64
ro	-65
ly	-66
ut	-67
▁he	-68
▁is	-69
▁他	-70
id	-71
▁是	-72
▁on	-73
▁这	-74
qu	-75
▁for	-76
▁I	-77
▁不	-78
et	-79
im	-80
▁了	-81
ay	-82
apos	-83
ow	-84
ce	-85
ation	-86
ld	-87
ad	-88
▁it	-89
ver	-90
▁你	-91
▁st	-92
▁that	-93
ur	-94
ig	-95
un	-96
▁和	-97
▁C	-98
ch	-99
ir	-100
▁)	-101
▁(	-102
▁:	-103
ith	-104
▁有	-105
▁we	-106
am	-107
▁S	-108
if	-109
▁with	-110
▁wh	-111
▁as	-112
▁@	-113
-@	-114
▁@-@	-115
quot	-116
st	-117
il	-118
▁、	-119
ter	-120
▁人	-121
ill	-122
ment	-123
ol	-124
▁con	-125
▁可	-126
▁中	-127
▁1	-128
ul	-129
her	-130
ke	-131
▁r	-132
od	-133
▁2	-134
▁A	-135
▁M	-136
▁de	-137
ge	-138
se	-139
▁was	-140
▁se	-141
▁com	-142
▁?	-143
▁not	-144
▁or	-145
ess	-146
ave	-147
▁at	-148
▁are	-149
op	-150
▁pro	-151
ain	-152
ate	-153
ers	-154
▁一个	-155
▁fr	-156
▁对	-157
▁sh	-158
▁P	-159
and	-160
ac	-161
ore	-162
▁我们	-163
▁就	-164
est	-165
ist	-166
▁ne	-167
▁ex	-168
▁上	-169
igh	-170
ong	-171
ant	-172
▁me	-173
up	-174
ab	-175
ive	-176
oun	-177
▁T	-178
▁this	-179
ity	-180
ould	-181
th	-182
ure	-183
▁那	-184
00	-185
▁have	-186
▁H	-187
▁时	-188
▁by	-189
▁;	-190
▁大	-191
▁but	-192
ect	-193
ri	-194
um	-195
▁地	-196
▁v	-197
▁说	-198
ort	-199
▁un	-200
art	-201
▁do	-202
▁ch	-203
▁以	-204
▁le	-205
▁会	-206
▁al	-207
▁can	-208
▁D	-209
▁“	-210
ust	-211
ight	-212
▁她	-213
▁from	-214
▁发	-215
▁his	-216
▁will	-217
▁为	-218
▁tr	-219
▁”	-220
all	-221
▁B	-222
▁wor	-223
▁sp	-224
end	-225
▁go	-226
em	-227
▁也	-228
▁so	-229
▁whe	-230
▁如	-231
res	-232
▁L	-233
ies	-234
▁自	-235
▁但	-236
▁us	-237
▁他们	-238
▁your	-239
▁而	-240
el	-241
▁-	-242
▁所	-243
▁或	-244
gh	-245
iv	-246
pl	-247
ome	-248
▁E	-249
▁k	-250
ard	-251
▁sa	-252
▁all	-253
▁G	-254
▁they	-255
▁ab	-256
▁将	-257
▁R	-258
ial	-259
▁都	-260
our	-261
ud	-262
▁最	-263
red	-264
▁lo	-265
ast	-266
▁很	-267
act	-268
ff	-269
ie	-270
▁j	-271
▁并	-272
ice	-273
▁su	-274
ren	-275
▁W	-276
▁F	-277
▁one	-278
▁来	-279
▁它	-280
▁int	-281
▁其	-282
▁up	-283
ear	-284
▁公	-285
out	-286
▁if	-287
▁要	-288
▁my	-289
▁与	-290
▁及	-291
▁能	-292
ous	-293
▁之	-294
ough	-295
▁pl	-296
▁has	-297
▁没	-298
▁man	-299
ost	-300
▁到	-301
age	-302
▁pr	-303
ok	-304
ak	-305
▁out	-306
▁工	-307
ag	-308
▁en	-309
▁comp	-310
▁im	-311
▁可以	-312
ide	-313
▁her	-314
▁Ch	-315
▁she	-316
ip	-317
ine	-318
▁200	-319
ther	-320
▁ap	-321
▁还	-322
▁O	-323
one	-324
ake	-325
▁当	-326
ich	-327
very	-328
ind	-329
▁看	-330
▁因	-331
▁从	-332
ep	-333
▁li	-334
ance	-335
▁ad	-336
▁提	-337
▁出	-338
▁said	-339
▁被	-340
▁生	-341
▁多	-342
▁when	-343
ound	-344
ack	-345
▁使	-346
▁N	-347
port	-348
▁had	-349
▁更	-350
ime	-351
▁there	-352
ry	-353
▁小	-354
▁进	-355
▁their	-356
ical	-357
▁下	-358
▁cl	-359
▁ar	-360
▁K	-361
▁te	-362
▁年	-363
▁J	-364
▁cont	-365
▁成	-366
▁ac	-367
▁more	-368
able	-369
▁res	-370
▁没有	-371
der	-372
▁3	-373
per	-374
▁!	-375
▁用	-376
▁/	-377
▁pe	-378
▁方	-379
orm	-380
▁事	-381
▁美	-382
oc	-383
▁no	-384
▁经	-385
ans	-386
▁开	-387
ary	-388
▁已	-389
ace	-390
▁过	-391
ult	-392
▁which	-393
▁dis	-394
ec	-395
ays	-396
pt	-397
▁把	-398
▁who	-399
du	-400
▁fe	-401
▁只	-402
iz	-403
▁would	-404
ame	-405
▁like	-406
ions	-407
ated	-408
og	-409
▁kn	-410
▁电	-411
▁新	-412
▁him	-413
ose	-414
ib	-415
▁some	-416
▁time	-417
▁自己	-418
▁第	-419
av	-420
ue	-421
▁如果	-422
▁好	-423
▁what	-424
▁想	-425
▁ag	-426
▁were	-427
erv	-428
▁other	-429
▁通	-430
▁表	-431
▁这个	-432
▁现	-433
▁无	-434
▁work	-435
ally	-436
▁year	-437
▁做	-438
ign	-439
ase	-440
ang	-441
▁qu	-442
▁应	-443
ople	-444
▁国	-445
▁off	-446
▁着	-447
▁about	-448
ence	-449
▁去	-450
▁how	-451
▁per	-452
▁them	-453
ass	-454
ations	-455
ress	-456
ire	-457
▁gr	-458
▁主	-459
are	-460
ub	-461
▁高	-462
▁相	-463
▁ev	-464
▁its	-465
▁people	-466
▁U	-467
ount	-468
▁any	-469
▁our	-470
ater	-471
ish	-472
▁分	-473
▁part	-474
▁问	-475
▁been	-476
ite	-477
ach	-478
▁作	-479
ber	-480
▁同	-481
▁每	-482
▁正	-483
▁可能	-484
own	-485
▁bec	-486
▁co	-487
▁重	-488
▁让	-489
ree	-490
▁inc	-491
ild	-492
▁into	-493
▁than	-494
ark	-495
so	-496
▁得	-497
▁学	-498
vel	-499
▁over	-500
▁工作	-501
reat	-502
itt	-503
什么	-504
ink	-505
▁new	-506
▁sc	-507
▁给	-508
▁后	-509
▁两	-510
▁里	-511
▁保	-512
form	-513
aus	-514
▁这些	-515
▁also	-516
ail	-517
▁may	-518
▁内	-519
▁5	-520
▁br	-521
▁需	-522
ction	-523
▁资	-524
ile	-525
▁日	-526
▁app	-527
ade	-528
▁政	-529
▁am	-530
▁tw	-531
▁fl	-532
▁ro	-533
▁个	-534
▁Chin	-535
ings	-536
ood	-537
▁结	-538
▁af	-539
▁In	-540
ra	-541
ia	-542
▁4	-543
▁比	-544
ition	-545
▁由	-546
cess	-547
▁认	-548
mer	-549
▁pre	-550
▁关	-551
▁本	-552
▁知	-553
ord	-554
ru	-555
▁only	-556
▁实	-557
wn	-558
ife	-559
▁但是	-560
▁—	-561
▁know	-562
▁行	-563
ens	-564
▁感	-565
ory	-566
▁bl	-567
▁should	-568
ick	-569
▁机	-570
▁香	-571
oss	-572
▁after	-573
▁因为	-574
▁under	-575
▁bo	-576
▁St	-577
▁全	-578
int	-579
con	-580
▁could	-581
▁just	-582
▁特	-583
ise	-584
▁总	-585
▁该	-586
ning	-587
▁问题	-588
▁数	-589
▁get	-590
▁前	-591
▁fir	-592
▁see	-593
▁任	-594
ors	-595
▁非	-596
▁必	-597
sel	-598
▁回	-599
▁美国	-600
▁研	-601
fe	-602
▁计	-603
▁意	-604
▁good	-605
ause	-606
▁rec	-607
▁安	-608
▁中国	-609
ious	-610
▁ind	-611
▁于	-612
▁建	-613
ents	-614
▁po	-615
▁des	-616
▁cons	-617
▁bet	-618
rent	-619
▁什么	-620
▁now	-621
▁two	-622
▁文	-623
▁then	-624
hed	-625
other	-626
we	-627
▁基	-628
▁向	-629
ob	-630
▁every	-631
▁sy	-632
▁服	-633
lic	-634
▁法	-635
anc	-636
▁设	-637
ject	-638
tern	-639
▁女	-640
▁香港	-641
▁已经	-642
▁comm	-643
▁acc	-644
▁公司	-645
▁进行	-646
fore	-647
▁these	-648
▁需要	-649
▁水	-650
▁加	-651
▁imp	-652
▁研究	-653
▁Y	-654
▁指	-655
▁打	-656
▁英	-657
▁月	-658
▁make	-659
▁目	-660
▁知道	-661
▁接	-662
ments	-663
▁sm	-664
▁look	-665
▁一些	-666
▁教	-667
▁信	-668
eth	-669
▁使用	-670
▁most	-671
▁几	-672
▁家	-673
▁一种	-674
▁very	-675
▁就是	-676
▁first	-677
day	-678
▁世	-679
ck	-680
▁情	-681
row	-682
▁sup	-683
▁op	-684
▁need	-685
▁6	-686
▁三	-687
▁19	-688
▁rel	-689
▁等	-690
urn	-691
▁二	-692
▁不是	-693
▁真	-694
▁产	-695
ict	-696
▁这样	-697
▁bu	-698
ual	-699
velop	-700
erm	-701
ons	-702
▁inv	-703
▁Hong	-704
▁完	-705
▁天	-706
▁..	-707
▁even	-708
▁thr	-709
▁服务	-710
▁exp	-711
lect	-712
▁day	-713
▁原	-714
▁海	-715
▁did	-716
▁ob	-717
▁reg	-718
amp	-719
▁又	-720
▁em	-721
▁提供	-722
▁pers	-723
▁现在	-724
▁起	-725
▁want	-726
▁变	-727
▁act	-728
▁life	-729
▁mu	-730
ng	-731
ble	-732
▁合	-733
▁eff	-734
▁long	-735
▁stud	-736
oy	-737
ert	-738
ied	-739
ft	-740
vers	-741
▁many	-742
▁well	-743
▁时候	-744
▁att	-745
▁手	-746
▁produ	-747
▁所有	-748
▁包	-749
▁心	-750
ates	-751
▁外	-752
▁rem	-753
▁cr	-754
▁这种	-755
gr	-756
ific	-757
▁fo	-758
▁think	-759
▁prov	-760
app	-761
ange	-762
stem	-763
iss	-764
▁car	-765
▁down	-766
▁受	-767
ities	-768
▁such	-769
▁然	-770
▁运	-771
olog	-772
▁您	-773
▁dec	-774
▁各	-775
▁back	-776
▁much	-777
ks	-778
▁任何	-779
▁十	-780
▁Kong	-781
▁Mr	-782
ful	-783
air	-784
▁身	-785
▁because	-786
▁其他	-787
ily	-788
ices	-789
▁像	-790
▁through	-791
▁use	-792
▁交	-793
▁serv	-794
▁don	-795
▁%	-796
▁今	-797
▁hand	-798
vern	-799
▁长	-800
▁dif	-801
▁处	-802
▁时间	-803
▁再	-804
▁world	-805
▁认为	-806
▁way	-807
ian	-808
▁收	-809
▁V	-810
ove	-811
iness	-812
▁你们	-813
▁say	-814
te	-815
▁sub	-816
ull	-817
▁开始	-818
▁带	-819
▁before	-820
plic	-821
▁ph	-822
▁参	-823
ating	-824
enc	-825
▁years	-826
▁吗	-827
ather	-828
▁again	-829
▁hel	-830
▁ke	-831
ublic	-832
▁take	-833
ational	-834
xt	-835
▁str	-836
▁面	-837
▁计划	-838
▁制	-839
ility	-840
▁市	-841
▁网	-842
▁管	-843
▁发展	-844
▁们	-845
self	-846
au	-847
▁老	-848
▁made	-849
▁请	-850
ative	-851
▁先	-852
▁爱	-853
ident	-854
▁China	-855
▁组	-856
▁sur	-857
▁太	-858
aw	-859
ved	-860
▁wr	-861
▁col	-862
ular	-863
▁反	-864
ward	-865
▁放	-866
▁system	-867
▁develop	-868
▁help	-869
▁ear	-870
▁此	-871
▁东	-872
▁&#	-873
▁至	-874
les	-875
▁call	-876
▁传	-877
▁有关	-878
ath	-879
▁商	-880
▁count	-881
▁部	-882
ient	-883
▁影	-884
▁bus	-885
ener	-886
oth	-887
▁...	-888
▁理	-889
▁改	-890
ower	-891
▁own	-892
ible	-893
ew	-894
▁mon	-895
rop	-896
▁规	-897
ese	-898
▁希	-899
▁7	-900
▁政府	-901
▁明	-902
▁通过	-903
▁compan	-904
▁8	-905
▁世界	-906
▁报	-907
▁used	-908
ell	-909
▁pol	-910
▁add	-911
▁let	-912
▁增	-913
▁&#9	-914
▁活	-915
formation	-916
▁where	-917
系统	-918
▁person	-919
▁Com	-920
▁走	-921
▁ass	-922
▁名	-923
ought	-924
▁child	-925
▁以及	-926
▁必须	-927
▁ent	-928
▁must	-929
▁》	-930
▁《	-931
▁听	-932
▁set	-933
ness	-934
▁form	-935
▁生活	-936
▁right	-937
▁pres	-938
▁投	-939
ures	-940
▁支	-941
▁人们	-942
▁消	-943
ee	-944
▁解	-945
▁fin	-946
▁选	-947
▁spec	-948
get	-949
▁社	-950
▁预	-951
old	-952
▁国家	-953
vernment	-954
▁经济	-955
▁inst	-956
▁许	-957
gan	-958
ited	-959
▁gl	-960
▁high	-961
▁利	-962
▁bel	-963
way	-964
▁trans	-965
▁专	-966
▁10	-967
▁平	-968
▁end	-969
▁sl	-970
▁「	-971
▁调	-972
▁发现	-973
▁却	-974
▁」	-975
ond	-976
alk	-977
▁9	-978
▁条	-979
▁金	-980
▁获	-981
aking	-982
▁确	-983
▁mark	-984
▁非常	-985
hes	-986
ys	-987
ics	-988
lud	-989
▁环	-990
▁推	-991
uring	-992
▁rep	-993
cept	-994
▁不会	-995
▁喜	-996
▁联	-997
ouse	-998
▁ins	-999
▁另	-1000
▁great	-1001
▁男	-1002
▁those	-1003
its	-1004
▁Un	-1005
▁water	-1006
▁或者	-1007
ty	-1008
als	-1009
▁强	-1010
iew	-1011
▁last	-1012
▁each	-1013
▁resp	-1014
ting	-1015
ittle	-1016
▁dep	-1017
ank	-1018
▁即	-1019
▁那些	-1020
▁重要	-1021
▁disc	-1022
▁still	-1023
▁som	-1024
▁决	-1025
▁动	-1026
ock	-1027
▁love	-1028
▁come	-1029
▁shall	-1030
▁0	-1031
▁不能	-1032
llow	-1033
▁形	-1034
▁import	-1035
hip	-1036
▁科	-1037
ween	-1038
ere	-1039
▁成为	-1040
rib	-1041
▁mod	-1042
▁between	-1043
▁影响	-1044
ten	-1045
▁转	-1046
ts	-1047
ution	-1048
▁dr	-1049
land	-1050
孩子	-1051
▁方法	-1052
ov	-1053
▁四	-1054
▁记	-1055
▁神	-1056
▁requ	-1057
▁一样	-1058
chn	-1059
▁little	-1060
▁does	-1061
ced	-1062
▁申	-1063
▁che	-1064
ai	-1065
▁det	-1066
▁old	-1067
istr	-1068
▁public	-1069
led	-1070
▁清	-1071
▁wom	-1072
▁显	-1073
▁The	-1074
▁体	-1075
conom	-1076
▁feel	-1077
▁精	-1078
▁Re	-1079
▁流	-1080
▁告	-1081
alth	-1082
▁too	-1083
▁帮	-1084
oup	-1085
▁applic	-1086
▁num	-1087
▁ple	-1088
arm	-1089
▁show	-1090
und	-1091
▁inf	-1092
▁邮	-1093
▁代	-1094
▁注	-1095
▁未	-1096
▁创	-1097
▁空	-1098
▁它们	-1099
▁房	-1100
▁while	-1101
▁包括	-1102
▁采	-1103
▁ret	-1104
▁应该	-1105
▁证	-1106
▁gu	-1107
▁食	-1108
▁fam	-1109
▁马	-1110
▁单	-1111
▁情况	-1112
▁being	-1113
▁希望	-1114
▁直	-1115
ways	-1116
ually	-1117
ool	-1118
▁inter	-1119
▁表示	-1120
ying	-1121
▁技	-1122
▁才	-1123
▁found	-1124
▁cor	-1125
▁read	-1126
▁diffe	-1127
▁领	-1128
▁find	-1129
▁西	-1130
▁conc	-1131
▁20	-1132
▁here	-1133
▁sim	-1134
ont	-1135
▁never	-1136
ody	-1137
▁bas	-1138
▁医	-1139
▁随	-1140
▁effect	-1141
▁happ	-1142
▁business	-1143
arch	-1144
ism	-1145
ax	-1146
▁孩子	-1147
▁sk	-1148
▁includ	-1149
▁exper	-1150
ince	-1151
▁物	-1152
▁风	-1153
▁put	-1154
gg	-1155
▁首	-1156
▁那么	-1157
▁ask	-1158
ever	-1159
▁找	-1160
▁具	-1161
▁某	-1162
▁Chinese	-1163
hen	-1164
▁能够	-1165
▁性	-1166
▁mat	-1167
▁许多	-1168
▁系统	-1169
ize	-1170
iend	-1171
ered	-1172
▁管理	-1173
▁引	-1174
▁friend	-1175
▁min	-1176
▁econom	-1177
ience	-1178
▁vis	-1179
iet	-1180
uth	-1181
meric	-1182
ract	-1183
yp	-1184
▁An	-1185
▁根	-1186
▁might	-1187
▁char	-1188
▁cle	-1189
▁而且	-1190
▁图	-1191
▁呢	-1192
▁sign	-1193
▁存	-1194
▁标	-1195
▁always	-1196
ner	-1197
▁别	-1198
▁company	-1199
▁看到	-1200
▁Americ	-1201
▁第一	-1202
▁所以	-1203
▁follow	-1204
▁three	-1205
ives	-1206
▁information	-1207
▁ext	-1208
ale	-1209
▁尽	-1210
▁委	-1211
▁def	-1212
read	-1213
▁seem	-1214
me	-1215
▁ref	-1216
▁hum	-1217
▁val	-1218
ants	-1219
▁main	-1220
▁mem	-1221
▁整	-1222
▁怎	-1223
▁cur	-1224
▁market	-1225
ret	-1226
▁申请	-1227
ix	-1228
▁花	-1229
▁real	-1230
▁·	-1231
▁失	-1232
blem	-1233
▁cent	-1234
pos	-1235
▁然后	-1236
▁观	-1237
imes	-1238
▁不同	-1239
▁道	-1240
▁gener	-1241
▁模	-1242
uc	-1243
▁cour	-1244
▁result	-1245
man	-1246
▁考	-1247
▁地方	-1248
▁home	-1249
riv	-1250
▁adv	-1251
ters	-1252
▁对于	-1253
▁Sh	-1254
▁cap	-1255
ces	-1256
oney	-1257
▁without	-1258
▁主要	-1259
▁简	-1260
ric	-1261
▁发生	-1262
▁为了	-1263
▁仍	-1264
▁喜欢	-1265
▁告诉	-1266
ology	-1267
▁快	-1268
less	-1269
▁作为	-1270
▁热	-1271
▁吃	-1272
▁社会	-1273
▁fact	-1274
▁another	-1275
▁pass	-1276
▁open	-1277
▁Pro	-1278
▁few	-1279
▁As	-1280
▁曾	-1281
▁start	-1282
▁期	-1283
▁离	-1284
▁星	-1285
▁conf	-1286
▁办	-1287
▁wee	-1288
rol	-1289
▁还是	-1290
▁早	-1291
▁广	-1292
▁air	-1293
▁problem	-1294
▁深	-1295
ection	-1296
▁适	-1297
▁play	-1298
▁give	-1299
▁价	-1300
▁next	-1301
▁跟	-1302
▁fore	-1303
chool	-1304
▁准	-1305
▁lar	-1306
ork	-1307
▁same	-1308
hing	-1309
ung	-1310
▁loc	-1311
▁方式	-1312
▁因此	-1313
▁城	-1314
▁during	-1315
▁product	-1316
▁small	-1317
▁med	-1318
ern	-1319
▁going	-1320
lish	-1321
▁超	-1322
ier	-1323
akes	-1324
▁stand	-1325
▁around	-1326
▁结果	-1327
▁head	-1328
▁气	-1329
▁point	-1330
▁month	-1331
▁plan	-1332
ision	-1333
▁共	-1334
ds	-1335
▁12	-1336
irect	-1337
▁检	-1338
▁today	-1339
▁place	-1340
▁says	-1341
ural	-1342
▁死	-1343
▁这是	-1344
▁约	-1345
▁周	-1346
let	-1347
ene	-1348
pr	-1349
▁techn	-1350
▁类	-1351
gy	-1352
▁很多	-1353
▁meet	-1354
ital	-1355
▁ed	-1356
ists	-1357
▁both	-1358
▁优	-1359
▁由于	-1360
▁hard	-1361
▁五	-1362
朋友	-1363
▁spe	-1364
iron	-1365
▁eas	-1366
su	-1367
▁一次	-1368
▁如何	-1369
▁av	-1370
▁要求	-1371
▁number	-1372
ars	-1373
▁unt	-1374
▁东西	-1375
ared	-1376
▁tell	-1377
▁例	-1378
▁协	-1379
▁只是	-1380
▁连	-1381
▁ser	-1382
▁rest	-1383
▁按	-1384
▁things	-1385
▁资料	-1386
▁得到	-1387
▁Eng	-1388
▁heart	-1389
▁process	-1390
ention	-1391
ature	-1392
ute	-1393
▁money	-1394
▁达	-1395
ph	-1396
▁partic	-1397
▁并且	-1398
▁oper	-1399
ves	-1400
▁是否	-1401
▁however	-1402
▁眼	-1403
▁举	-1404
▁often	-1405
▁试	-1406
▁ey	-1407
▁invest	-1408
▁区	-1409
▁减	-1410
arn	-1411
▁dat	-1412
▁different	-1413
▁best	-1414
▁一起	-1415
▁不要	-1416
▁lead	-1417
▁常	-1418
▁important	-1419
▁belie	-1420
▁声	-1421
▁He	-1422
▁art	-1423
▁turn	-1424
▁承	-1425
▁决定	-1426
▁安全	-1427
▁care	-1428
▁keep	-1429
▁帮助	-1430
▁旅	-1431
▁design	-1432
ivers	-1433
▁活动	-1434
▁头	-1435
▁耶	-1436
▁难	-1437
▁build	-1438
▁pat	-1439
cial	-1440
▁阿	-1441
▁便	-1442
▁取	-1443
▁pur	-1444
▁父	-1445
▁北	-1446
▁better	-1447
▁技术	-1448
cc	-1449
▁pay	-1450
▁环境	-1451
▁sec	-1452
▁incre	-1453
▁职	-1454
▁的话	-1455
▁thought	-1456
▁men	-1457
▁Off	-1458
▁除	-1459
▁立	-1460
▁设计	-1461
▁children	-1462
▁产品	-1463
az	-1464
▁contin	-1465
ruct	-1466
▁修	-1467
1;	-1468
▁&#91;	-1469
▁run	-1470
▁prot	-1471
▁车	-1472
ling	-1473
▁委员	-1474
▁於	-1475
ality	-1476
ages	-1477
▁光	-1478
▁big	-1479
ething	-1480
▁一直	-1481
▁事情	-1482
▁cre	-1483
▁light	-1484
▁导	-1485
▁战	-1486
▁grow	-1487
ason	-1488
▁Go	-1489
▁评	-1490
▁days	-1491
▁警	-1492
stand	-1493
▁称	-1494
ple	-1495
▁land	-1496
▁程	-1497
▁kind	-1498
ense	-1499
▁测	-1500
▁rese	-1501
▁please	-1502
ne	-1503
ided	-1504
▁项	-1505
▁something	-1506
▁house	-1507
ried	-1508
▁Comm	-1509
artment	-1510
▁gre	-1511
▁report	-1512
▁’	-1513
▁位	-1514
▁市场	-1515
▁维	-1516
ploy	-1517
▁先生	-1518
▁控	-1519
▁"	-1520
▁正在	-1521
ven	-1522
▁poss	-1523
▁两个	-1524
▁school	-1525
▁away	-1526
▁since	-1527
▁book	-1528
▁prom	-1529
ized	-1530
▁quest	-1531
▁food	-1532
▁De	-1533
▁黑	-1534
▁欧	-1535
erest	-1536
▁业	-1537
▁不过	-1538
▁国际	-1539
lo	-1540
▁飞	-1541
▁less	-1542
▁甚	-1543
▁came	-1544
▁同时	-1545
▁出现	-1546
iving	-1547
gram	-1548
▁term	-1549
▁民	-1550
▁干	-1551
▁继	-1552
▁against	-1553
000	-1554
▁吧	-1555
▁why	-1556
▁country	-1557
▁state	-1558
▁号	-1559
▁list	-1560
▁巴	-1561
▁定	-1562
▁power	-1563
▁15	-1564
▁亚	-1565
▁则	-1566
▁儿	-1567
ries	-1568
▁sw	-1569
▁prof	-1570
▁处理	-1571
▁病	-1572
ised	-1573
ency	-1574
▁布	-1575
▁复	-1576
thing	-1577
▁$	-1578
rit	-1579
▁God	-1580
▁方面	-1581
▁beh	-1582
▁写	-1583
bers	-1584
▁once	-1585
▁令	-1586
▁cert	-1587
▁容	-1588
▁able	-1589
▁met	-1590
▁dist	-1591
▁游	-1592
▁sol	-1593
▁2008	-1594
▁interest	-1595
▁really	-1596
▁test	-1597
ains	-1598
▁job	-1599
▁银	-1600
▁typ	-1601
▁一位	-1602
▁government	-1603
▁书	-1604
ines	-1605
▁客	-1606
▁白	-1607
▁装	-1608
ash	-1609
ected	-1610
▁full	-1611
▁mar	-1612
▁获得	-1613
▁class	-1614
ired	-1615
▁数据	-1616
▁朋友	-1617
▁严	-1618
ished	-1619
▁ide	-1620
ethod	-1621
▁law	-1622
▁young	-1623
▁路	-1624
▁got	-1625
▁觉	-1626
▁奥	-1627
ope	-1628
▁持	-1629
▁哪	-1630
▁低	-1631
▁elect	-1632
▁--	-1633
▁那个	-1634
▁Ex	-1635
viron	-1636
ically	-1637
▁起来	-1638
aining	-1639
▁est	-1640
▁week	-1641
▁hour	-1642
▁Th	-1643
augh	-1644
rap	-1645
▁还有	-1646
▁火	-1647
▁来说	-1648
▁night	-1649
▁11	-1650
▁展	-1651
▁name	-1652
▁双	-1653
▁development	-1654
▁之间	-1655
ined	-1656
▁bre	-1657
▁一切	-1658
▁委员会	-1659
▁health	-1660
ield	-1661
eng	-1662
▁似	-1663
ination	-1664
▁aff	-1665
▁集	-1666
iting	-1667
▁这里	-1668
▁organ	-1669
▁中心	-1670
ides	-1671
▁service	-1672
▁一点	-1673
outh	-1674
uss	-1675
企业	-1676
▁New	-1677
▁const	-1678
▁其中	-1679
oint	-1680
▁点	-1681
▁英国	-1682
▁充	-1683
▁secon	-1684
▁语	-1685
▁极	-1686
▁土	-1687
▁support	-1688
gin	-1689
▁equ	-1690
▁财	-1691
ases	-1692
ering	-1693
aving	-1694
▁commun	-1695
ained	-1696
vironment	-1697
aff	-1698
▁具有	-1699
▁become	-1700
▁Sc	-1701
▁印	-1702
▁吸	-1703
▁监	-1704
rence	-1705
▁method	-1706
▁虽	-1707
▁pos	-1708
▁每个	-1709
▁特别	-1710
▁30	-1711
▁穿	-1712
▁然而	-1713
▁Is	-1714
▁change	-1715
公司	-1716
▁control	-1717
▁Q	-1718
▁觉得	-1719
▁感到	-1720
▁应用	-1721
▁信息	-1722
▁allow	-1723
▁拥	-1724
▁之后	-1725
▁今天	-1726
▁学生	-1727
▁较	-1728
▁indust	-1729
atch	-1730
ission	-1731
▁el	-1732
ulation	-1733
aut	-1734
▁附	-1735
▁data	-1736
▁过去	-1737
▁expl	-1738
▁叫	-1739
▁买	-1740
▁dem	-1741
ral	-1742
▁bro	-1743
▁个人	-1744
▁18	-1745
▁接受	-1746
io	-1747
▁照	-1748
min	-1749
ream	-1750
▁星期	-1751
▁leg	-1752
▁讲	-1753
▁独	-1754
▁细	-1755
ustom	-1756
▁依	-1757
部分	-1758
li	-1759
▁body	-1760
▁sal	-1761
▁停	-1762
uthor	-1763
▁sit	-1764
▁human	-1765
▁Ad	-1766
▁控制	-1767
▁一定	-1768
▁见	-1769
▁选择	-1770
▁供	-1771
▁Tr	-1772
ization	-1773
▁只有	-1774
▁ris	-1775
▁pa	-1776
ted	-1777
▁far	-1778
▁called	-1779
▁large	-1780
▁199	-1781
▁产生	-1782
▁查	-1783
▁level	-1784
ets	-1785
▁越	-1786
▁第二	-1787
▁rece	-1788
▁微	-1789
▁普	-1790
iven	-1791
▁过程	-1792
▁within	-1793
ator	-1794
▁mor	-1795
▁application	-1796
▁study	-1797
▁住	-1798
▁fac	-1799
▁comple	-1800
▁Cent	-1801
agement	-1802
▁Sp	-1803
▁Le	-1804
▁根据	-1805
▁建议	-1806
▁部分	-1807
▁降	-1808
ron	-1809
ote	-1810
▁造	-1811
▁family	-1812
▁project	-1813
▁假	-1814
▁项目	-1815
▁运动	-1816
▁second	-1817
▁Ar	-1818
▁appro	-1819
▁电子	-1820
aper	-1821
▁之一	-1822
▁危	-1823
▁mother	-1824
▁left	-1825
▁group	-1826
▁坐	-1827
▁那里	-1828
▁whether	-1829
▁talk	-1830
▁meas	-1831
▁投资	-1832
▁负	-1833
▁最后	-1834
▁free	-1835
▁direct	-1836
▁var	-1837
▁ve	-1838
orn	-1839
▁继续	-1840
▁地区	-1841
▁圣	-1842
▁top	-1843
▁mean	-1844
▁understand	-1845
▁face	-1846
▁Dep	-1847
lf	-1848
▁offic	-1849
▁Serv	-1850
▁cond	-1851
▁went	-1852
▁防	-1853
▁效	-1854
▁之前	-1855
▁关系	-1856
▁impro	-1857
▁Z	-1858
▁intern	-1859
▁拿	-1860
▁four	-1861
ues	-1862
▁lot	-1863
▁near	-1864
▁pop	-1865
▁present	-1866
▁room	-1867
▁prev	-1868
ional	-1869
▁紧	-1870
▁object	-1871
▁完全	-1872
▁永	-1873
ah	-1874
▁压	-1875
br	-1876
▁存在	-1877
▁甚至	-1878
▁满	-1879
▁view	-1880
▁能力	-1881
▁工程	-1882
▁wind	-1883
▁货	-1884
▁分析	-1885
▁支持	-1886
▁视	-1887
▁yet	-1888
▁mus	-1889
ium	-1890
▁组织	-1891
▁思	-1892
▁Te	-1893
▁提出	-1894
▁虽然	-1895
▁mind	-1896
▁节	-1897
▁Or	-1898
▁关于	-1899
▁enough	-1900
▁通常	-1901
aj	-1902
ified	-1903
▁无法	-1904
▁won	-1905
▁排	-1906
▁program	-1907
ially	-1908
▁卡	-1909
ately	-1910
line	-1911
osp	-1912
▁留	-1913
▁企业	-1914
▁激	-1915
▁thing	-1916
▁tem	-1917
▁谈	-1918
irc	-1919
▁目前	-1920
▁增加	-1921
▁教育	-1922
▁2009	-1923
▁母	-1924
▁order	-1925
3;	-1926
▁&#93;	-1927
ger	-1928
▁city	-1929
▁温	-1930
▁调查	-1931
▁least	-1932
▁live	-1933
▁pract	-1934
▁perform	-1935
▁化	-1936
▁历	-1937
▁fil	-1938
▁坚	-1939
▁accord	-1940
▁钱	-1941
ior	-1942
▁occ	-1943
▁城市	-1944
▁English	-1945
▁X	-1946
▁德	-1947
▁准备	-1948
▁anal	-1949
▁权	-1950
▁strong	-1951
▁怎么	-1952
▁Pr	-1953
▁报告	-1954
▁健	-1955
ped	-1956
▁生产	-1957
▁亲	-1958
▁chang	-1959
▁往	-1960
▁case	-1961
▁rev	-1962
▁六	-1963
▁克	-1964
▁○	-1965
▁万	-1966
▁women	-1967
▁机构	-1968
▁told	-1969
▁Government	-1970
▁cost	-1971
▁晚	-1972
▁es	-1973
▁Be	-1974
alf	-1975
▁employ	-1976
▁拉	-1977
▁proper	-1978
▁种	-1979
▁演	-1980
▁科学	-1981
▁hold	-1982
▁行为	-1983
▁原因	-1984
▁九	-1985
▁如此	-1986
▁农	-1987
▁2007	-1988
ug	-1989
▁也许	-1990
▁有些	-1991
▁会议	-1992
▁ann	-1993
por	-1994
▁课	-1995
▁足	-1996
▁愿	-1997
ently	-1998
▁治	-1999
▁means	-2000
▁银行	-2001
▁目标	-2002
▁目的	-2003
▁past	-2004
▁took	-2005
▁environment	-2006
ability	-2007
▁mom	-2008
▁似乎	-2009
uck	-2010
▁among	-2011
ider	-2012
▁cult	-2013
▁using	-2014
▁sing	-2015
▁文件	-2016
▁gir	-2017
▁learn	-2018
▁others	-2019
▁Ro	-2020
▁post	-2021
here	-2022
▁return	-2023
努力	-2024
▁入	-2025
▁par	-2026
▁宣	-2027
▁人类	-2028
ived	-2029
▁居	-2030
▁轻	-2031
▁fur	-2032
ott	-2033
ased	-2034
aterial	-2035
▁状	-2036
▁解决	-2037
med	-2038
▁though	-2039
▁di	-2040
▁press	-2041
▁ele	-2042
▁woman	-2043
▁activ	-2044
▁fun	-2045
bs	-2046
▁感觉	-2047
▁一下	-2048
▁门	-2049
▁口	-2050
ably	-2051
▁short	-2052
▁核	-2053
▁toget	-2054
▁担	-2055
▁局	-2056
▁相信	-2057
▁together	-2058
▁远	-2059
▁wa	-2060
▁显示	-2061
▁食物	-2062
▁sure	-2063
▁故	-2064
ember	-2065
▁者	-2066
aring	-2067
▁出来	-2068
▁学习	-2069
oh	-2070
▁upon	-2071
▁有效	-2072
▁beaut	-2073
work	-2074
▁文化	-2075
▁船	-2076
▁错	-2077
▁special	-2078
▁red	-2079
▁罗	-2080
▁Ind	-2081
▁人士	-2082
▁考虑	-2083
▁拥有	-2084
▁执	-2085
▁完成	-2086
▁friends	-2087
iation	-2088
▁为什么	-2089
▁青	-2090
▁father	-2091
--	-2092
atic	-2093
▁Sec	-2094
fic	-2095
▁一天	-2096
▁山	-2097
▁suc	-2098
ping	-2099
▁ever	-2100
▁trad	-2101
icy	-2102
▁红	-2103
ply	-2104
not	-2105
▁certain	-2106
▁统	-2107
▁保持	-2108
▁until	-2109
▁伊	-2110
▁配	-2111
▁custom	-2112
▁音	-2113
▁nothing	-2114
▁站	-2115
▁努力	-2116
▁了解	-2117
acter	-2118
▁古	-2119
▁南	-2120
▁缺	-2121
▁cho	-2122
▁保护	-2123
▁巨	-2124
▁hist	-2125
aster	-2126
▁角	-2127
▁人员	-2128
▁改变	-2129
▁side	-2130
▁容易	-2131
▁working	-2132
▁walk	-2133
iod	-2134
措施	-2135
▁begin	-2136
▁try	-2137
aken	-2138
▁突	-2139
▁机会	-2140
eb	-2141
▁war	-2142
▁一般	-2143
▁local	-2144
▁破	-2145
ury	-2146
▁王	-2147
▁material	-2148
▁格	-2149
▁question	-2150
iety	-2151
▁maj	-2152
▁酒	-2153
▁eyes	-2154
▁谁	-2155
▁大学	-2156
▁mo	-2157
▁move	-2158
▁沙	-2159
▁educ	-2160
inc	-2161
▁若	-2162
▁following	-2163
ending	-2164
▁issu	-2165
▁hot	-2166
▁编	-2167
▁带来	-2168
▁services	-2169
ush	-2170
▁rele	-2171
itive	-2172
▁2006	-2173
▁计算	-2174
ards	-2175
▁威	-2176
ames	-2177
▁来自	-2178
▁总是	-2179
▁家庭	-2180
▁少	-2181
▁clear	-2182
▁stop	-2183
▁mil	-2184
iversity	-2185
ins	-2186
▁including	-2187
▁enc	-2188
▁力	-2189
▁石	-2190
▁近	-2191
▁博	-2192
▁account	-2193
▁这一	-2194
▁comput	-2195
inal	-2196
▁quality	-2197
ats	-2198
主义	-2199
▁mov	-2200
▁署	-2201
▁历史	-2202
ands	-2203
▁pain	-2204
▁bir	-2205
▁Gr	-2206
▁times	-2207
▁provide	-2208
itions	-2209
▁质	-2210
▁tre	-2211
▁treat	-2212
▁believe	-2213
▁致	-2214
▁Department	-2215
▁生命	-2216
▁探	-2217
▁sun	-2218
tal	-2219
▁令人	-2220
angu	-2221
▁team	-2222
▁找到	-2223
▁13	-2224
▁bank	-2225
▁Con	-2226
▁fall	-2227
err	-2228
▁American	-2229
▁infl	-2230
▁寻	-2231
▁eng	-2232
▁exc	-2233
▁讨	-2234
▁i	-2235
▁later	-2236
▁reason	-2237
▁斯	-2238
▁sum	-2239
▁背	-2240
ched	-2241
▁making	-2242
ither	-2243
iqu	-2244
▁七	-2245
den	-2246
▁利用	-2247
▁low	-2248
▁financ	-2249
▁16	-2250
duct	-2251
▁students	-2252
▁军	-2253
▁短	-2254
▁saw	-2255
▁cal	-2256
▁法律	-2257
▁trying	-2258
▁given	-2259
▁审	-2260
▁Pl	-2261
▁HK	-2262
▁dev	-2263
bo	-2264
▁products	-2265
▁资讯	-2266
▁step	-2267
▁团	-2268
▁ste	-2269
▁登	-2270
orth	-2271
ister	-2272
▁竞	-2273
▁受到	-2274
acy	-2275
▁导致	-2276
▁area	-2277
▁私	-2278
▁尽管	-2279
▁sn	-2280
▁离开	-2281
ption	-2282
▁全球	-2283
▁En	-2284
side	-2285
▁five	-2286
▁参加	-2287
ged	-2288
▁fut	-2289
▁major	-2290
uation	-2291
▁实际	-2292
illion	-2293
▁那样	-2294
▁事实	-2295
▁球	-2296
▁cut	-2297
▁批	-2298
▁电影	-2299
▁ant	-2300
▁research	-2301
▁这么	-2302
urity	-2303
▁亦	-2304
▁Fr	-2305
▁above	-2306
els	-2307
▁14	-2308
▁范	-2309
ware	-2310
▁bit	-2311
▁黄	-2312
▁建筑	-2313
▁girl	-2314
be	-2315
▁树	-2316
aps	-2317
▁电话	-2318
▁current	-2319
▁cannot	-2320
▁Intern	-2321
▁事务	-2322
▁透	-2323
▁ener	-2324
istration	-2325
▁easy	-2326
▁redu	-2327
ivid	-2328
▁according	-2329
▁ans	-2330
▁汽	-2331
din	-2332
▁win	-2333
▁英语	-2334
▁25	-2335
▁岁	-2336
▁having	-2337
▁学校	-2338
▁皮	-2339
▁建立	-2340
▁course	-2341
▁asked	-2342
▁哈	-2343
▁aut	-2344
▁self	-2345
ape	-2346
▁小时	-2347
▁half	-2348
ification	-2349
ances	-2350
ready	-2351
▁身体	-2352
▁最好	-2353
▁营	-2354
▁积	-2355
▁代表	-2356
▁known	-2357
▁注意	-2358
▁Eu	-2359
▁别人	-2360
▁提高	-2361
▁polit	-2362
▁period	-2363
▁fail	-2364
▁already	-2365
▁Reg	-2366
▁年轻	-2367
▁whole	-2368
▁2005	-2369
▁元	-2370
ane	-2371
▁further	-2372
▁matter	-2373
▁United	-2374
▁送	-2375
erc	-2376
▁common	-2377
▁互	-2378
▁终	-2379
▁字	-2380
▁hope	-2381
▁leave	-2382
ony	-2383
▁艺	-2384
ounc	-2385
▁possible	-2386
▁表现	-2387
mb	-2388
most	-2389
▁楼	-2390
ising	-2391
▁乐	-2392
▁early	-2393
▁economic	-2394
icle	-2395
▁补	-2396
ving	-2397
▁健康	-2398
▁伤	-2399
▁进入	-2400
时间	-2401
com	-2402
▁仅	-2403
▁自然	-2404
▁属	-2405
▁results	-2406
▁industry	-2407
▁bad	-2408
▁words	-2409
raph	-2410
▁social	-2411
▁members	-2412
▁冲	-2413
▁含	-2414
iver	-2415
orts	-2416
▁相关	-2417
▁用于	-2418
rope	-2419
▁along	-2420
▁商业	-2421
▁政策	-2422
▁deal	-2423
ify	-2424
▁yes	-2425
iter	-2426
ended	-2427
▁造成	-2428
▁困	-2429
▁至少	-2430
ficult	-2431
af	-2432
▁移	-2433
ories	-2434
▁作用	-2435
▁colle	-2436
和华	-2437
▁close	-2438
▁购	-2439
▁experience	-2440
▁耶和华	-2441
▁绝	-2442
▁No	-2443
ured	-2444
▁difficult	-2445
▁Man	-2446
▁女人	-2447
▁deep	-2448
▁line	-2449
▁标准	-2450
▁circ	-2451
▁fire	-2452
▁done	-2453
▁visit	-2454
▁bene	-2455
▁治疗	-2456
▁lim	-2457
reet	-2458
▁签	-2459
▁介	-2460
ode	-2461
▁value	-2462
▁费	-2463
▁bring	-2464
▁fre	-2465
▁relations	-2466
selves	-2467
▁price	-2468
政府	-2469
▁news	-2470
▁恐	-2471
▁Europe	-2472
▁success	-2473
ened	-2474
▁sent	-2475
▁appear	-2476
raw	-2477
▁股	-2478
▁sat	-2479
▁sever	-2480
▁future	-2481
▁Wh	-2482
▁ren	-2483
▁药	-2484
▁睡	-2485
▁合作	-2486
▁实现	-2487
▁差	-2488
ference	-2489
▁规定	-2490
▁百	-2491
▁Lord	-2492
▁一名	-2493
▁soft	-2494
▁looking	-2495
▁血	-2496
▁整个	-2497
▁pot	-2498
▁arm	-2499
▁Cl	-2500
ample	-2501
▁多少	-2502
▁价值	-2503
▁sle	-2504
ibility	-2505
▁particular	-2506
cu	-2507
▁一项	-2508
▁countries	-2509
▁avail	-2510
over	-2511
▁prep	-2512
▁几乎	-2513
▁父亲	-2514
▁mid	-2515
▁priv	-2516
▁限	-2517
▁幸	-2518
▁net	-2519
▁最大	-2520
▁parent	-2521
▁moment	-2522
▁thir	-2523
▁简单	-2524
▁langu	-2525
▁自由	-2526
▁真正	-2527
▁author	-2528
▁flow	-2529
▁non	-2530
rist	-2531
ggest	-2532
▁欧洲	-2533
ief	-2534
▁官	-2535
▁措施	-2536
▁仍然	-2537
▁makes	-2538
▁someone	-2539
▁争	-2540
▁艺术	-2541
▁刚	-2542
▁议	-2543
▁paper	-2544
▁母亲	-2545
▁未来	-2546
itional	-2547
▁months	-2548
▁accept	-2549
▁field	-2550
▁免	-2551
▁compet	-2552
▁软	-2553
▁品	-2554
▁价格	-2555
idence	-2556
▁追	-2557
▁suggest	-2558
▁变得	-2559
▁波	-2560
▁不得	-2561
▁街	-2562
▁航	-2563
▁同样	-2564
贸易	-2565
▁door	-2566
wards	-2567
▁混	-2568
tle	-2569
▁energy	-2570
▁礼	-2571
ison	-2572
▁列	-2573
▁tax	-2574
▁不可	-2575
▁soon	-2576
▁政治	-2577
▁经常	-2578
oid	-2579
use	-2580
▁office	-2581
▁有人	-2582
▁损	-2583
▁didn	-2584
▁word	-2585
▁rad	-2586
▁当然	-2587
▁based	-2588
ouncil	-2589
▁欢	-2590
▁stay	-2591
▁fund	-2592
▁tele	-2593
▁desc	-2594
ross	-2595
▁seen	-2596
▁death	-2597
▁wife	-2598
▁record	-2599
▁US	-2600
▁即使	-2601
▁21	-2602
▁怀	-2603
▁sil	-2604
▁morning	-2605
▁基本	-2606
ential	-2607
▁hours	-2608
▁可是	-2609
ises	-2610
▁网站	-2611
▁密	-2612
▁采用	-2613
aim	-2614
▁17	-2615
▁management	-2616
▁比赛	-2617
▁减少	-2618
▁行动	-2619
▁临	-2620
▁require	-2621
▁earth	-2622
▁有限	-2623
▁网络	-2624
▁客户	-2625
▁男人	-2626
▁caus	-2627
▁began	-2628
rodu	-2629
▁del	-2630
.1	-2631
▁间	-2632
▁front	-2633
▁冷	-2634
▁himself	-2635
▁大多	-2636
▁consum	-2637
▁有时	-2638
mp	-2639
▁半	-2640
▁兴	-2641
▁程序	-2642
▁Ph	-2643
sc	-2644
▁rather	-2645
▁证明	-2646
▁financial	-2647
▁条例	-2648
▁several	-2649
sue	-2650
ery	-2651
▁hands	-2652
▁拒	-2653
▁其它	-2654
ton	-2655
▁ra	-2656
▁内容	-2657
▁50	-2658
▁building	-2659
▁玩	-2660
▁sound	-2661
▁2004	-2662
▁动物	-2663
▁heav	-2664
▁详	-2665
▁一年	-2666
▁respons	-2667
ruction	-2668
▁age	-2669
▁Me	-2670
ctor	-2671
▁works	-2672
face	-2673
ift	-2674
▁character	-2675
▁惊	-2676
▁seems	-2677
▁key	-2678
▁son	-2679
▁退	-2680
▁用户	-2681
▁mag	-2682
起来	-2683
▁100	-2684
ilities	-2685
▁bar	-2686
ration	-2687
▁speak	-2688
ety	-2689
▁hig	-2690
▁读	-2691
▁doing	-2692
▁精神	-2693
fer	-2694
▁phot	-2695
▁公共	-2696
▁And	-2697
▁detail	-2698
▁边	-2699
▁arr	-2700
▁唯	-2701
▁联合	-2702
▁suff	-2703
▁ident	-2704
▁problems	-2705
▁almost	-2706
▁ago	-2707
▁雇	-2708
▁零	-2709
tain	-2710
▁话	-2711
▁日本	-2712
▁二十	-2713
▁white	-2714
hers	-2715
▁各种	-2716
▁improve	-2717
▁持续	-2718
▁避	-2719
▁操	-2720
▁personal	-2721
▁check	-2722
though	-2723
▁dou	-2724
▁卫	-2725
▁主任	-2726
une	-2727
▁业务	-2728
▁发出	-2729
▁衣	-2730
ully	-2731
▁technology	-2732
▁总统	-2733
▁大家	-2734
▁express	-2735
▁anim	-2736
iful	-2737
aces	-2738
apan	-2739
▁exist	-2740
▁exam	-2741
▁公众	-2742
▁汽车	-2743
▁比较	-2744
▁la	-2745
▁tri	-2746
▁available	-2747
illed	-2748
▁determ	-2749
▁Ap	-2750
▁quick	-2751
ij	-2752
ples	-2753
▁污	-2754
▁测试	-2755
▁subject	-2756
osed	-2757
▁答	-2758
rie	-2759
▁break	-2760
▁profess	-2761
▁living	-2762
▁oil	-2763
▁trave	-2764
aged	-2765
cent	-2766
utes	-2767
▁顾	-2768
elt	-2769
▁语言	-2770
▁road	-2771
joy	-2772
ividual	-2773
▁discuss	-2774
▁变化	-2775
▁灵	-2776
orrow	-2777
atory	-2778
▁严重	-2779
▁纪	-2780
▁cell	-2781
▁respect	-2782
▁草	-2783
▁几个	-2784
▁Japan	-2785
▁结构	-2786
oke	-2787
▁销	-2788
▁想要	-2789
▁black	-2790
▁buy	-2791
▁vol	-2792
▁glob	-2793
vey	-2794
▁usually	-2795
▁患	-2796
▁mess	-2797
▁直接	-2798
▁采取	-2799
▁米	-2800
▁Rep	-2801
▁risk	-2802
▁mot	-2803
▁更加	-2804
▁成功	-2805
▁将会	-2806
▁一只	-2807
▁Council	-2808
▁meeting	-2809
▁遗	-2810
▁although	-2811
▁扩	-2812
▁dream	-2813
▁needs	-2814
▁安排	-2815
▁随着	-2816
▁general	-2817
▁complete	-2818
▁毫	-2819
▁油	-2820
▁Brit	-2821
heme	-2822
▁official	-2823
▁看见	-2824
▁不断	-2825
▁stat	-2826
▁每天	-2827
ead	-2828
▁ten	-2829
▁例如	-2830
▁无论	-2831
▁necess	-2832
▁nat	-2833
ittee	-2834
.2	-2835
▁eat	-2836
▁Christ	-2837
▁肯	-2838
▁cop	-2839
▁Mar	-2840
ivil	-2841
▁consider	-2842
▁lab	-2843
itor	-2844
▁八	-2845
▁somet	-2846
pect	-2847
▁bed	-2848
▁rate	-2849
▁音乐	-2850
▁人民	-2851
ude	-2852
▁儿子	-2853
▁enjoy	-2854
ann	-2855
▁education	-2856
▁富	-2857
▁yourself	-2858
▁international	-2859
ening	-2860
▁以下	-2861
▁creat	-2862
▁access	-2863
▁沉	-2864
ler	-2865
▁idea	-2866
▁taken	-2867
▁estab	-2868
▁contract	-2869
▁执行	-2870
▁传统	-2871
▁重新	-2872
▁挑	-2873
▁invol	-2874
ients	-2875
▁牛	-2876
▁blood	-2877
▁今年	-2878
▁尤	-2879
resent	-2880
ills	-2881
▁值	-2882
▁稳	-2883
▁医生	-2884
▁恶	-2885
▁均	-2886
▁individual	-2887
▁梦	-2888
▁anything	-2889
▁场	-2890
▁确定	-2891
▁期间	-2892
▁增长	-2893
▁ship	-2894
▁orig	-2895
▁Comp	-2896
fort	-2897
fact	-2898
gress	-2899
▁cause	-2900
▁conn	-2901
▁24	-2902
▁amount	-2903
istic	-2904
ograph	-2905
▁参与	-2906
▁sense	-2907
▁opt	-2908
▁一家	-2909
oon	-2910
▁办公	-2911
urs	-2912
chie	-2913
▁真的	-2914
▁true	-2915
▁大量	-2916
▁培	-2917
▁讨论	-2918
ental	-2919
▁foreign	-2920
▁concern	-2921
▁foot	-2922
▁基础	-2923
▁looked	-2924
▁超过	-2925
▁解释	-2926
▁达到	-2927
▁six	-2928
▁happy	-2929
▁across	-2930
▁ill	-2931
▁愿意	-2932
▁大多数	-2933
ences	-2934
▁促	-2935
▁举行	-2936
▁奇	-2937
itted	-2938
▁一条	-2939
▁party	-2940
▁华	-2941
▁Ass	-2942
ructure	-2943
ological	-2944
▁秘	-2945
▁福	-2946
▁everything	-2947
▁订	-2948
▁制造	-2949
▁z	-2950
▁啊	-2951
ively	-2952
wer	-2953
▁Res	-2954
▁propos	-2955
▁回答	-2956
▁既	-2957
▁而是	-2958
ager	-2959
▁十分	-2960
▁agree	-2961
ends	-2962
▁呼	-2963
▁形式	-2964
of	-2965
▁永远	-2966
▁economy	-2967
fully	-2968
▁sometimes	-2969
▁docu	-2970
▁专业	-2971
▁computer	-2972
▁抗	-2973
▁初	-2974
ecut	-2975
▁swe	-2976
▁dark	-2977
▁Road	-2978
istrict	-2979
▁交易	-2980
▁dise	-2981
▁表明	-2982
▁暴	-2983
▁以前	-2984
▁土地	-2985
▁切	-2986
▁Office	-2987
▁language	-2988
▁最终	-2989
asing	-2990
▁phys	-2991
yn	-2992
▁likely	-2993
▁date	-2994
▁占	-2995
▁mult	-2996
▁须	-2997
▁及其	-2998
▁quite	-2999
▁comb	-3000
ource	-3001
▁员	-3002
▁构	-3003
▁命	-3004
▁history	-3005
▁港	-3006
iously	-3007
▁enter	-3008
▁输	-3009
▁gave	-3010
▁ground	-3011
▁type	-3012
portun	-3013
▁劳	-3014
▁ur	-3015
▁policy	-3016
▁*	-3017
pec	-3018
▁companies	-3019
ones	-3020
mber	-3021
▁Wor	-3022
▁comes	-3023
▁怎样	-3024
▁due	-3025
▁经验	-3026
▁pie	-3027
▁范围	-3028
▁space	-3029
dle	-3030
▁意见	-3031
▁areas	-3032
▁fig	-3033
▁States	-3034
▁样	-3035
▁认识	-3036
▁stren	-3037
▁据	-3038
▁boy	-3039
▁同意	-3040
ledge	-3041
▁saying	-3042
ored	-3043
▁唯一	-3044
▁ho	-3045
▁held	-3046
▁watch	-3047
▁脸	-3048
▁longer	-3049
▁achie	-3050
▁智	-3051
▁罪	-3052
▁声音	-3053
▁意味	-3054
▁电脑	-3055
▁Dr	-3056
▁压力	-3057
usion	-3058
▁第三	-3059
▁lay	-3060
pose	-3061
▁结束	-3062
bt	-3063
▁therefore	-3064
▁最近	-3065
ges	-3066
▁故事	-3067
▁Al	-3068
▁model	-3069
ogn	-3070
iate	-3071
▁drink	-3072
▁beautiful	-3073
ump	-3074
▁冰	-3075
▁成员	-3076
▁Gu	-3077
▁著	-3078
▁跑	-3079
vert	-3080
▁高级	-3081
any	-3082
▁引起	-3083
▁ce	-3084
▁abs	-3085
▁22	-3086
▁邮政	-3087
rup	-3088
▁sell	-3089
▁dest	-3090
▁introdu	-3091
▁dom	-3092
ources	-3093
▁growth	-3094
▁良	-3095
▁compl	-3096
▁程度	-3097
▁付	-3098
▁sea	-3099
▁负责	-3100
▁neg	-3101
▁heard	-3102
oud	-3103
▁clean	-3104
▁危险	-3105
▁opportun	-3106
▁废	-3107
▁脚	-3108
▁shop	-3109
arc	-3110
▁当时	-3111
▁pri	-3112
▁形成	-3113
▁妻	-3114
▁条件	-3115
▁副	-3116
▁28	-3117
▁女性	-3118
▁streng	-3119
▁错误	-3120
▁example	-3121
▁另外	-3122
▁teac	-3123
rown	-3124
▁parents	-3125
▁才能	-3126
hem	-3127
▁跳	-3128
▁理解	-3129
▁借	-3130
▁不仅	-3131
▁责	-3132
▁电视	-3133
ival	-3134
▁喝	-3135
▁bott	-3136
▁position	-3137
▁休	-3138
lished	-3139
▁享	-3140
▁America	-3141
ijing	-3142
ilt	-3143
▁基金	-3144
▁prob	-3145
▁repl	-3146
hold	-3147
▁continu	-3148
▁hair	-3149
▁除了	-3150
▁pack	-3151
▁作出	-3152
▁outside	-3153
▁左	-3154
▁gold	-3155
OR	-3156
▁University	-3157
▁遇	-3158
▁北京	-3159
▁救	-3160
▁relationship	-3161
▁23	-3162
▁确保	-3163
yc	-3164
ows	-3165
▁行政	-3166
▁这次	-3167
▁hy	-3168
▁instead	-3169
▁sleep	-3170
▁soc	-3171
▁espec	-3172
▁card	-3173
▁event	-3174
retary	-3175
▁金融	-3176
ex	-3177
▁巨大	-3178
▁global	-3179
▁一份	-3180
▁介绍	-3181
▁scient	-3182
▁particip	-3183
▁trade	-3184
▁simple	-3185
▁mach	-3186
▁论	-3187
▁Post	-3188
▁创造	-3189
▁聚	-3190
▁子	-3191
▁poor	-3192
▁dam	-3193
▁hear	-3194
ley	-3195
▁实验	-3196
▁table	-3197
▁护	-3198
▁事件	-3199
▁饮	-3200
raft	-3201
▁版	-3202
▁度	-3203
▁鼓	-3204
▁taking	-3205
▁spr	-3206
▁fear	-3207
itting	-3208
lement	-3209
▁象	-3210
▁填	-3211
▁expect	-3212
▁influ	-3213
▁领导	-3214
▁You	-3215
▁概	-3216
▁especially	-3217
▁address	-3218
▁spir	-3219
▁倒	-3220
▁太阳	-3221
▁sex	-3222
▁behind	-3223
ze	-3224
▁grad	-3225
▁Beijing	-3226
▁木	-3227
▁bur	-3228
▁眼睛	-3229
gu	-3230
▁今日	-3231
▁死亡	-3232
▁single	-3233
▁销售	-3234
ians	-3235
▁痛	-3236
▁风险	-3237
▁放在	-3238
▁父母	-3239
材料	-3240
by	-3241
▁Service	-3242
▁以后	-3243
▁music	-3244
par	-3245
▁wanted	-3246
▁[	-3247
▁落	-3248
▁小组	-3249
▁king	-3250
▁vir	-3251
▁知识	-3252
▁Centre	-3253
▁立法	-3254
hib	-3255
▁remember	-3256
▁消费	-3257
imate	-3258
oice	-3259
▁increase	-3260
▁经过	-3261
▁sho	-3262
▁jud	-3263
▁security	-3264
▁因素	-3265
▁obs	-3266
▁port	-3267
▁slow	-3268
▁杰	-3269
▁单位	-3270
▁这位	-3271
▁速	-3272
ots	-3273
▁performance	-3274
load	-3275
▁位置	-3276
下来	-3277
▁norm	-3278
▁flo	-3279
▁宗	-3280
▁fa	-3281
▁wall	-3282
mit	-3283
▁说明	-3284
AR	-3285
▁只要	-3286
▁wide	-3287
▁描	-3288
▁妻子	-3289
▁ready	-3290
▁不再	-3291
▁妈	-3292
▁于是	-3293
▁national	-3294
ached	-3295
▁策	-3296
▁阻	-3297
▁benef	-3298
▁miss	-3299
▁cover	-3300
▁everyone	-3301
▁cold	-3302
▁fish	-3303
▁铁	-3304
▁ban	-3305
▁total	-3306
▁屋	-3307
▁required	-3308
oul	-3309
view	-3310
▁cred	-3311
▁看看	-3312
omm	-3313
▁听到	-3314
▁注册	-3315
▁曾经	-3316
▁offer	-3317
▁设备	-3318
▁婚	-3319
▁开发	-3320
body	-3321
▁苏	-3322
▁camp	-3323
▁Im	-3324
▁2003	-3325
▁记录	-3326
▁意识	-3327
科技	-3328
uff	-3329
▁杀	-3330
▁水平	-3331
▁green	-3332
▁奖	-3333
▁生物	-3334
▁represent	-3335
ceed	-3336
▁何	-3337
aves	-3338
▁取得	-3339
▁Information	-3340
gest	-3341
▁fav	-3342
▁carry	-3343
▁状态	-3344
▁意味着	-3345
▁perf	-3346
▁拍	-3347
▁抱	-3348
▁台	-3349
▁固	-3350
▁squ	-3351
▁ens	-3352
▁市民	-3353
ask	-3354
anger	-3355
▁延	-3356
unch	-3357
▁nature	-3358
▁Af	-3359
▁else	-3360
▁通知	-3361
▁贸易	-3362
▁试图	-3363
▁lost	-3364
▁commer	-3365
▁允	-3366
itation	-3367
▁percent	-3368
▁翻	-3369
▁story	-3370
▁新闻	-3371
▁game	-3372
▁改善	-3373
▁河	-3374
ique	-3375
一步	-3376
▁dog	-3377
▁hon	-3378
▁Car	-3379
▁有限公司	-3380
▁以上	-3381
▁init	-3382
▁遭	-3383
▁provided	-3384
▁dead	-3385
▁pick	-3386
学家	-3387
▁foc	-3388
▁staff	-3389
▁rul	-3390
▁理论	-3391
ama	-3392
▁pict	-3393
▁Mon	-3394
▁身上	-3395
▁site	-3396
▁surface	-3397
▁她们	-3398
▁actually	-3399
.5	-3400
▁felt	-3401
▁看起来	-3402
▁natural	-3403
▁力量	-3404
▁我会	-3405
ilar	-3406
▁检查	-3407
▁issue	-3408
▁sens	-3409
▁thous	-3410
▁million	-3411
▁div	-3412
▁意义	-3413
▁Cont	-3414
▁保证	-3415
▁潜	-3416
▁竞争	-3417
▁租	-3418
▁share	-3419
▁画	-3420
▁higher	-3421
▁一件	-3422
▁助	-3423
▁Sy	-3424
▁允许	-3425
▁wish	-3426
▁contact	-3427
▁tend	-3428
▁犯	-3429
▁knew	-3430
come	-3431
▁区域	-3432
▁员工	-3433
▁gen	-3434
▁getting	-3435
▁招	-3436
▁communic	-3437
▁快乐	-3438
▁mount	-3439
sy	-3440
▁40	-3441
▁fast	-3442
▁这项	-3443
▁private	-3444
istics	-3445
olution	-3446
▁课程	-3447
▁司	-3448
▁community	-3449
▁倾	-3450
ging	-3451
▁抵	-3452
▁疾	-3453
ners	-3454
▁coming	-3455
▁capital	-3456
▁发言	-3457
▁充满	-3458
▁吸引	-3459
dinance	-3460
▁变成	-3461
go	-3462
▁资源	-3463
▁歌	-3464
▁野	-3465
▁部门	-3466
ateg	-3467
▁investig	-3468
▁We	-3469
▁直到	-3470
ysis	-3471
roll	-3472
▁turned	-3473
▁需求	-3474
▁either	-3475
▁上帝	-3476
ousing	-3477
▁operation	-3478
▁claim	-3479
▁production	-3480
▁film	-3481
ON	-3482
▁Joh	-3483
▁doesn	-3484
▁求	-3485
▁明显	-3486
ators	-3487
▁行业	-3488
▁implement	-3489
▁词	-3490
▁符	-3491
▁三个	-3492
▁apply	-3493
▁bi	-3494
▁训	-3495
▁以色	-3496
ees	-3497
▁themselves	-3498
chan	-3499
▁changes	-3500
▁以色列	-3501
ids	-3502
yle	-3503
▁conduct	-3504
uly	-3505
▁现代	-3506
haps	-3507
▁mis	-3508
▁隐	-3509
▁hor	-3510
▁否	-3511
▁禁	-3512
▁signific	-3513
▁妈妈	-3514
▁continue	-3515
▁Bo	-3516
▁儿童	-3517
▁刺	-3518
rug	-3519
▁关注	-3520
▁Services	-3521
▁尼	-3522
enn	-3523
▁队	-3524
,000	-3525
▁various	-3526
▁except	-3527
▁坐在	-3528
▁交通	-3529
▁third	-3530
▁笑	-3531
▁或是	-3532
▁洗	-3533
▁我要	-3534
▁长期	-3535
▁空气	-3536
▁线	-3537
▁crit	-3538
itten	-3539
▁create	-3540
▁张	-3541
▁表达	-3542
▁Gener	-3543
▁麦	-3544
▁地球	-3545
erve	-3546
▁collect	-3547
▁knowledge	-3548
▁conv	-3549
▁反应	-3550
aching	-3551
▁植	-3552
▁late	-3553
▁宽	-3554
▁空间	-3555
iding	-3556
▁focus	-3557
▁related	-3558
▁aw	-3559
ining	-3560
▁Co	-3561
▁treatment	-3562
vant	-3563
▁appe	-3564
▁bat	-3565
▁necessary	-3566
▁modern	-3567
▁Committee	-3568
▁领域	-3569
▁pressure	-3570
▁admin	-3571
▁数字	-3572
▁Ordinance	-3573
▁妇	-3574
▁lic	-3575
▁police	-3576
▁exerc	-3577
▁cat	-3578
rael	-3579
▁伦	-3580
▁绿	-3581
▁操作	-3582
▁vers	-3583
▁May	-3584
▁terms	-3585
▁职业	-3586
▁imm	-3587
▁一部分	-3588
▁印度	-3589
▁涉	-3590
▁麻	-3591
▁经历	-3592
▁某些	-3593
▁鱼	-3594
umb	-3595
▁急	-3596
▁became	-3597
▁activities	-3598
▁force	-3599
▁摩	-3600
▁Main	-3601
▁正确	-3602
▁进一步	-3603
▁Israel	-3604
▁稳定	-3605
▁夏	-3606
▁spok	-3607
▁civil	-3608
eter	-3609
▁好像	-3610
▁工具	-3611
▁名字	-3612
▁coll	-3613
utions	-3614
▁include	-3615
▁税	-3616
▁firm	-3617
velopment	-3618
▁attack	-3619
the	-3620
▁相当	-3621
▁action	-3622
▁measures	-3623
▁perhaps	-3624
▁princ	-3625
▁tar	-3626
▁recogn	-3627
ao	-3628
cer	-3629
icient	-3630
▁残	-3631
empt	-3632
▁食品	-3633
eed	-3634
▁tou	-3635
▁avoid	-3636
▁避免	-3637
▁indic	-3638
▁John	-3639
▁lat	-3640
▁situation	-3641
▁旅游	-3642
▁升	-3643
▁施	-3644
▁peace	-3645
▁drop	-3646
▁protect	-3647
▁晚上	-3648
▁靠	-3649
▁回到	-3650
▁itself	-3651
因为	-3652
▁是因为	-3653
▁brought	-3654
▁request	-3655
▁模式	-3656
orce	-3657
▁房屋	-3658
▁size	-3659
▁俄	-3660
▁效果	-3661
▁越来	-3662
▁越来越	-3663
▁次	-3664
▁顺	-3665
▁毛	-3666
ER	-3667
▁脑	-3668
▁doll	-3669
▁tour	-3670
▁丰	-3671
▁更好	-3672
▁Part	-3673
▁习	-3674
▁ways	-3675
▁赛	-3676
▁众	-3677
▁肯定	-3678
▁similar	-3679
▁阶	-3680
▁text	-3681
omes	-3682
▁夫	-3683
▁]	-3684
▁足够	-3685
airs	-3686
▁temper	-3687
▁cases	-3688
▁索	-3689
▁answer	-3690
▁抽	-3691
▁数量	-3692
▁训练	-3693
▁债	-3694
▁意思	-3695
▁关键	-3696
▁thank	-3697
▁共同	-3698
▁组成	-3699
人员	-3700
▁pub	-3701
▁vi	-3702
▁political	-3703
▁突然	-3704
▁此外	-3705
▁sales	-3706
▁针	-3707
▁美元	-3708
▁首先	-3709
change	-3710
▁sold	-3711
▁只能	-3712
▁卫生	-3713
▁II	-3714
▁担心	-3715
▁教授	-3716
▁color	-3717
▁added	-3718
▁朝	-3719
aced	-3720
▁赞	-3721
▁wrong	-3722
▁有点	-3723
▁登记	-3724
▁供应	-3725
▁很快	-3726
to	-3727
▁sus	-3728
▁regard	-3729
▁派	-3730
系列	-3731
▁inside	-3732
▁步	-3733
▁warm	-3734
▁emer	-3735
▁Secretary	-3736
▁General	-3737
▁dig	-3738
▁访	-3739
▁jo	-3740
▁2000	-3741
▁culture	-3742
▁夜	-3743
▁training	-3744
▁实施	-3745
▁换	-3746
▁speed	-3747
▁疾病	-3748
▁201	-3749
ume	-3750
▁started	-3751
▁skin	-3752
▁popular	-3753
▁recent	-3754
▁conditions	-3755
▁North	-3756
▁round	-3757
▁bal	-3758
▁费用	-3759
aging	-3760
▁杂	-3761
利亚	-3762
▁保险	-3763
零零	-3764
▁prec	-3765
▁限制	-3766
▁To	-3767
▁shows	-3768
▁goods	-3769
▁decided	-3770
▁ability	-3771
▁da	-3772
▁反对	-3773
▁吉	-3774
▁底	-3775
▁科技	-3776
▁31	-3777
▁immed	-3778
▁Br	-3779
itude	-3780
▁做出	-3781
▁纽	-3782
▁大部分	-3783
▁desp	-3784
▁link	-3785
▁forward	-3786
▁Har	-3787
▁content	-3788
▁cross	-3789
▁property	-3790
▁hur	-3791
▁异	-3792
▁draw	-3793
▁任务	-3794
▁poll	-3795
room	-3796
▁质量	-3797
aughter	-3798
▁South	-3799
▁责任	-3800
ronic	-3801
▁评估	-3802
head	-3803
iction	-3804
▁消息	-3805
▁ball	-3806
▁mass	-3807
▁迷	-3808
▁describ	-3809
isl	-3810
▁applications	-3811
▁每年	-3812
▁Che	-3813
▁IT	-3814
▁或许	-3815
▁澳	-3816
▁aud	-3817
▁voice	-3818
▁埃	-3819
undred	-3820
▁购买	-3821
▁deg	-3822
▁tom	-3823
▁乘	-3824
大学	-3825
▁rain	-3826
▁表格	-3827
▁parts	-3828
▁日期	-3829
▁必要	-3830
▁当地	-3831
▁society	-3832
▁president	-3833
ension	-3834
▁违	-3835
▁27	-3836
▁town	-3837
▁store	-3838
▁role	-3839
▁Jan	-3840
▁明白	-3841
▁Col	-3842
▁资讯科技	-3843
action	-3844
▁corre	-3845
▁PD	-3846
▁人口	-3847
▁000	-3848
▁想法	-3849
uge	-3850
▁fat	-3851
▁邮票	-3852
uary	-3853
▁偏	-3854
eration	-3855
▁thus	-3856
▁engine	-3857
▁hundred	-3858
ocr	-3859
▁一段	-3860
▁analy	-3861
▁面前	-3862
▁软件	-3863
▁工业	-3864
ney	-3865
urance	-3866
▁位于	-3867
▁很大	-3868
▁联系	-3869
▁box	-3870
▁尝	-3871
▁思想	-3872
▁probably	-3873
▁困难	-3874
▁办公室	-3875
▁fight	-3876
ept	-3877
▁蓝	-3878
▁房间	-3879
▁et	-3880
▁归	-3881
▁dress	-3882
▁effective	-3883
▁rich	-3884
▁review	-3885
▁面对	-3886
▁清楚	-3887
▁fine	-3888
▁高兴	-3889
▁那种	-3890
▁窗	-3891
▁World	-3892
▁阴	-3893
▁tur	-3894
▁卖	-3895
▁脱	-3896
▁rock	-3897
▁plant	-3898
▁received	-3899
▁查询	-3900
▁saf	-3901
▁famil	-3902
▁wonder	-3903
▁启	-3904
▁用来	-3905
▁sud	-3906
▁牙	-3907
▁寻找	-3908
▁displ	-3909
▁unto	-3910
▁Se	-3911
amed	-3912
▁出口	-3913
▁equip	-3914
▁demand	-3915
▁应当	-3916
iday	-3917
▁宝	-3918
▁尤其	-3919
light	-3920
▁虚	-3921
▁贵	-3922
▁附近	-3923
▁beginning	-3924
▁进口	-3925
band	-3926
▁悲	-3927
▁统计	-3928
▁loss	-3929
reen	-3930
▁Tai	-3931
▁衣服	-3932
▁inn	-3933
▁veh	-3934
▁spirit	-3935
▁加入	-3936
▁良好	-3937
▁Pres	-3938
▁最新	-3939
▁法国	-3940
itable	-3941
ites	-3942
▁积极	-3943
▁材料	-3944
▁餐	-3945
ulate	-3946
rupt	-3947
iated	-3948
▁gas	-3949
▁myself	-3950
▁Development	-3951
▁hus	-3952
▁prevent	-3953
▁指出	-3954
▁旧	-3955
▁幸福	-3956
ball	-3957
▁旅行	-3958
▁coun	-3959
▁游戏	-3960
▁sudden	-3961
rate	-3962
▁systems	-3963
▁陈	-3964
▁Bl	-3965
▁lives	-3966
▁webs	-3967
▁来到	-3968
▁校	-3969
▁pred	-3970
▁速度	-3971
iment	-3972
程序	-3973
▁driv	-3974
anced	-3975
▁色	-3976
▁separ	-3977
▁issued	-3978
▁忘	-3979
▁26	-3980
▁林	-3981
▁观察	-3982
▁里面	-3983
▁不管	-3984
▁失去	-3985
rew	-3986
▁image	-3987
▁behav	-3988
▁逃	-3989
▁She	-3990
▁60	-3991
▁standard	-3992
arning	-3993
▁truth	-3994
▁chall	-3995
▁attention	-3996
▁item	-3997
▁纳	-3998
▁tool	-3999
astic	-4000
▁practice	-4001
▁美丽	-4002
▁adm	-4003
▁send	-4004
leg	-4005
▁一张	-4006
▁官员	-4007
▁commercial	-4008
▁设施	-4009
▁wood	-4010
▁network	-4011
ancy	-4012
ires	-4013
resh	-4014
▁武	-4015
▁bab	-4016
aught	-4017
put	-4018
▁seek	-4019
▁lower	-4020
▁feeling	-4021
▁disease	-4022
itary	-4023
恢复	-4024
▁判	-4025
▁drug	-4026
cl	-4027
▁alone	-4028
▁Internet	-4029
▁且	-4030
tic	-4031
▁Wan	-4032
▁safety	-4033
▁mechan	-4034
▁hop	-4035
▁专家	-4036
▁quickly	-4037
▁协议	-4038
▁尊	-4039
▁爆	-4040
▁缓	-4041
▁降低	-4042
▁letter	-4043
▁友	-4044
ensive	-4045
▁群	-4046
▁worth	-4047
▁cry	-4048
▁specific	-4049
estern	-4050
▁繁	-4051
▁enh	-4052
▁search	-4053
▁written	-4054
▁不得不	-4055
▁prices	-4056
▁eye	-4057
▁身份	-4058
▁appl	-4059
▁article	-4060
▁上述	-4061
▁assist	-4062
▁deli	-4063
▁裁	-4064
▁fle	-4065
▁适用	-4066
▁tree	-4067
▁brother	-4068
▁minutes	-4069
▁模型	-4070
▁全部	-4071
▁host	-4072
▁本地	-4073
▁规划	-4074
▁sort	-4075
▁恢复	-4076
▁战争	-4077
▁撒	-4078
▁Sup	-4079
▁court	-4080
bed	-4081
▁犹	-4082
▁伟	-4083
iple	-4084
▁details	-4085
▁safe	-4086
▁brain	-4087
▁一场	-4088
ables	-4089
.3	-4090
▁攻	-4091
▁世纪	-4092
▁tal	-4093
▁满足	-4094
▁算	-4095
▁独立	-4096
▁谢	-4097
▁亿	-4098
▁逐	-4099
ming	-4100
▁attract	-4101
▁策略	-4102
▁表面	-4103
▁decl	-4104
▁trou	-4105
▁ver	-4106
▁objective	-4107
▁史	-4108
where	-4109
▁Germ	-4110
▁Min	-4111
▁Sun	-4112
▁搜	-4113
▁software	-4114
▁经理	-4115
▁储	-4116
▁imag	-4117
▁律	-4118
▁办法	-4119
uty	-4120
▁surpr	-4121
▁二零零	-4122
egr	-4123
▁birth	-4124
▁观点	-4125
▁achieve	-4126
lymp	-4127
▁broad	-4128
cing	-4129
▁慢	-4130
aur	-4131
▁类型	-4132
▁waste	-4133
▁实际上	-4134
▁mist	-4135
▁encour	-4136
▁thinking	-4137
▁确实	-4138
▁progress	-4139
▁analysis	-4140
▁farm	-4141
▁questions	-4142
▁assoc	-4143
▁needed	-4144
▁测量	-4145
idered	-4146
▁加强	-4147
▁房子	-4148
▁器	-4149
▁说话	-4150
▁harm	-4151
ule	-4152
▁使得	-4153
▁complet	-4154
▁perfect	-4155
▁顶	-4156
▁decision	-4157
▁广泛	-4158
aint	-4159
▁takes	-4160
▁subst	-4161
▁而言	-4162
▁Pol	-4163
▁viol	-4164
uit	-4165
eech	-4166
▁符合	-4167
▁cand	-4168
▁travel	-4169
▁chance	-4170
▁learning	-4171
▁促进	-4172
▁燃	-4173
▁拒绝	-4174
▁类似	-4175
▁announ	-4176
▁impact	-4177
oph	-4178
▁漂	-4179
▁District	-4180
ivity	-4181
▁flu	-4182
▁层	-4183
▁遵	-4184
▁制度	-4185
▁mic	-4186
▁supply	-4187
▁滑	-4188
▁挑战	-4189
itch	-4190
▁29	-4191
▁方向	-4192
▁照片	-4193
▁adj	-4194
▁mail	-4195
▁Olymp	-4196
▁戴	-4197
▁从而	-4198
▁nor	-4199
▁below	-4200
▁时代	-4201
▁普通	-4202
ned	-4203
▁玛	-4204
ixed	-4205
ufact	-4206
▁super	-4207
▁write	-4208
AT	-4209
▁chem	-4210
▁2001	-4211
媒体	-4212
▁lack	-4213
▁散	-4214
▁下来	-4215
▁旁	-4216
▁态	-4217
▁phone	-4218
▁expected	-4219
▁肉	-4220
▁condition	-4221
▁飞机	-4222
▁ensure	-4223
▁satis	-4224
▁自动	-4225
unt	-4226
▁复杂	-4227
▁立法会	-4228
▁adop	-4229
ips	-4230
▁后来	-4231
▁痛苦	-4232
▁198	-4233
▁PDF	-4234
▁浪	-4235
▁描述	-4236
▁pull	-4237
▁former	-4238
▁阅	-4239
▁科学家	-4240
oking	-4241
▁seemed	-4242
▁‘	-4243
▁往往	-4244
▁path	-4245
▁entire	-4246
▁千	-4247
▁serious	-4248
▁2002	-4249
▁沿	-4250
▁内地	-4251
▁British	-4252
▁纸	-4253
▁广告	-4254
▁常常	-4255
▁ut	-4256
▁Can	-4257
▁promot	-4258
▁Spec	-4259
▁警察	-4260
▁连接	-4261
▁considered	-4262
▁舒	-4263
▁ones	-4264
▁驾	-4265
son	-4266
▁select	-4267
▁熟	-4268
dom	-4269
▁承认	-4270
etic	-4271
▁books	-4272
▁摆	-4273
▁simply	-4274
uan	-4275
▁credit	-4276
▁抓	-4277
▁特殊	-4278
▁Street	-4279
▁颜	-4280
▁weight	-4281
▁leaders	-4282
▁赶	-4283
▁成本	-4284
▁instit	-4285
▁running	-4286
verage	-4287
▁researc	-4288
▁道路	-4289
▁ess	-4290
▁media	-4291
▁Health	-4292
▁summer	-4293
▁伦敦	-4294
▁尝试	-4295
▁不到	-4296
▁失败	-4297
iant	-4298
▁glass	-4299
▁whose	-4300
▁以来	-4301
▁亚洲	-4302
▁structure	-4303
▁赢	-4304
▁notice	-4305
▁狗	-4306
▁丈	-4307
▁乔	-4308
▁Techn	-4309
illing	-4310
▁自我	-4311
▁fair	-4312
▁收集	-4313
estic	-4314
atives	-4315
▁mouth	-4316
▁瑞	-4317
▁李	-4318
▁materials	-4319
▁综	-4320
▁医疗	-4321
▁围	-4322
▁收入	-4323
▁anc	-4324
▁细胞	-4325
cell	-4326
▁老师	-4327
▁蛋	-4328
▁jour	-4329
▁最高	-4330
ches	-4331
▁Prof	-4332
▁feet	-4333
▁fly	-4334
▁blue	-4335
▁lif	-4336
AN	-4337
▁弗	-4338
▁stri	-4339
yl	-4340
世界	-4341
▁contrib	-4342
▁人生	-4343
▁妇女	-4344
▁Apr	-4345
▁坚持	-4346
▁target	-4347
▁significant	-4348
▁去年	-4349
▁looks	-4350
cast	-4351
▁January	-4352
▁source	-4353
▁作品	-4354
▁耶稣	-4355
▁难以	-4356
▁暂	-4357
▁provides	-4358
美元	-4359
▁康	-4360
▁烟	-4361
▁称为	-4362
▁insp	-4363
▁毫无	-4364
▁事实上	-4365
▁硬	-4366
▁sky	-4367
▁习惯	-4368
▁昨	-4369
▁hol	-4370
▁Po	-4371
▁issues	-4372
▁摄	-4373
▁President	-4374
▁prim	-4375
▁construction	-4376
▁wait	-4377
▁contr	-4378
▁天气	-4379
▁effects	-4380
ondon	-4381
▁德国	-4382
▁pret	-4383
▁traff	-4384
▁methods	-4385
co	-4386
▁迅	-4387
▁husband	-4388
▁investment	-4389
▁tried	-4390
▁ye	-4391
▁纽约	-4392
▁公开	-4393
▁丈夫	-4394
▁consult	-4395
▁诗	-4396
ster	-4397
▁植物	-4398
分之	-4399
quir	-4400
▁莫	-4401
▁下载	-4402
▁Plan	-4403
isions	-4404
▁毕	-4405
▁舞	-4406
iff	-4407
▁writing	-4408
▁透过	-4409
rief	-4410
▁再次	-4411
▁thou	-4412
▁thy	-4413
▁appoint	-4414
▁上面	-4415
▁concept	-4416
▁threat	-4417
▁发表	-4418
onse	-4419
rest	-4420
▁ang	-4421
▁function	-4422
▁运行	-4423
▁It	-4424
▁根本	-4425
▁发言人	-4426
▁London	-4427
▁attempt	-4428
▁Pe	-4429
▁stress	-4430
▁室	-4431
riage	-4432
▁封	-4433
▁aim	-4434
▁relevant	-4435
▁一旦	-4436
▁strength	-4437
▁化学	-4438
▁star	-4439
▁manufact	-4440
▁stru	-4441
▁increasing	-4442
▁weeks	-4443
▁integr	-4444
▁宣布	-4445
▁涉及	-4446
▁暗	-4447
▁快速	-4448
▁stamp	-4449
▁居民	-4450
▁speech	-4451
idents	-4452
▁Direct	-4453
val	-4454
▁Ob	-4455
▁ir	-4456
▁制作	-4457
▁resources	-4458
▁Li	-4459
▁遇到	-4460
vision	-4461
▁user	-4462
sh	-4463
▁workers	-4464
enty	-4465
▁正常	-4466
▁cris	-4467
▁艾	-4468
贷款	-4469
▁时期	-4470
▁danger	-4471
▁advant	-4472
▁处于	-4473
▁女儿	-4474
▁浏	-4475
.4	-4476
rec	-4477
▁Scheme	-4478
▁伯	-4479
▁家里	-4480
▁style	-4481
▁试验	-4482
方面	-4483
▁态度	-4484
▁International	-4485
▁Web	-4486
▁源	-4487
▁伟大	-4488
▁许可	-4489
▁浏览	-4490
reme	-4491
ression	-4492
▁distrib	-4493
▁measure	-4494
ously	-4495
ban	-4496
▁anyone	-4497
▁从来	-4498
▁code	-4499
▁其实	-4500
▁wild	-4501
▁built	-4502
▁traditional	-4503
▁权利	-4504
▁回来	-4505
▁访问	-4506
icles	-4507
▁floor	-4508
▁range	-4509
▁er	-4510
▁比如	-4511
atures	-4512
▁piece	-4513
▁彼	-4514
▁choose	-4515
▁十二	-4516
ospital	-4517
wh	-4518
▁仅仅	-4519
▁seven	-4520
▁maybe	-4521
▁finally	-4522
▁etc	-4523
▁轮	-4524
rench	-4525
▁autom	-4526
▁exercise	-4527
▁base	-4528
men	-4529
▁欢迎	-4530
▁quar	-4531
▁报道	-4532
▁害	-4533
▁心理	-4534
▁方案	-4535
▁果	-4536
▁阳	-4537
▁led	-4538
▁assess	-4539
▁00	-4540
▁customers	-4541
used	-4542
▁trust	-4543
▁并非	-4544
▁适合	-4545
▁易	-4546
▁weather	-4547
▁社区	-4548
▁developed	-4549
▁公园	-4550
ding	-4551
ken	-4552
▁支付	-4553
▁goes	-4554
▁内部	-4555
▁movie	-4556
▁女孩	-4557
▁汇	-4558
▁My	-4559
▁纪念	-4560
▁prop	-4561
sych	-4562
▁收到	-4563
▁日子	-4564
▁vac	-4565
▁Russ	-4566
▁opportunity	-4567
▁reduce	-4568
▁鼓励	-4569
▁environmental	-4570
▁有着	-4571
▁患者	-4572
iling	-4573
▁frequ	-4574
▁圆	-4575
▁tomorrow	-4576
ropri	-4577
▁骨	-4578
▁英文	-4579
▁users	-4580
▁托	-4581
▁spokes	-4582
▁fem	-4583
▁Commission	-4584
▁资金	-4585
▁环保	-4586
asons	-4587
amm	-4588
▁wants	-4589
▁养	-4590
▁雪	-4591
ici	-4592
▁计算机	-4593
▁purch	-4594
▁式	-4595
▁对象	-4596
▁Asia	-4597
▁第一次	-4598
▁patients	-4599
▁呈	-4600
▁doctor	-4601
▁Public	-4602
▁折	-4603
▁奥运	-4604
▁fresh	-4605
▁珍	-4606
▁物质	-4607
咖啡	-4608
▁机器	-4609
imin	-4610
▁ter	-4611
▁包含	-4612
▁功	-4613
▁污染	-4614
▁regular	-4615
▁颜色	-4616
▁website	-4617
▁贝	-4618
▁isn	-4619
▁安装	-4620
▁April	-4621
▁approach	-4622
▁如今	-4623
ady	-4624
▁bottom	-4625
▁经营	-4626
▁spend	-4627
▁胜	-4628
▁addition	-4629
▁potential	-4630
▁指定	-4631
▁Fl	-4632
aph	-4633
▁Day	-4634
▁Mainland	-4635
▁凯	-4636
▁停止	-4637
▁Leg	-4638
▁final	-4639
▁depart	-4640
▁print	-4641
▁顾客	-4642
▁闪	-4643
▁贫	-4644
▁雷	-4645
▁病人	-4646
▁pen	-4647
istry	-4648
▁钢	-4649
不是	-4650
▁park	-4651
▁traffic	-4652
▁teacher	-4653
▁bes	-4654
▁阶段	-4655
▁wat	-4656
▁legal	-4657
▁middle	-4658
▁gone	-4659
▁正如	-4660
▁rap	-4661
▁联合国	-4662
▁West	-4663
▁inj	-4664
▁unc	-4665
▁货物	-4666
▁levels	-4667
▁coup	-4668
▁York	-4669
▁European	-4670
ros	-4671
关系	-4672
▁型	-4673
aste	-4674
▁值得	-4675
▁勇	-4676
▁盖	-4677
▁一块	-4678
▁Oh	-4679
▁提交	-4680
▁copy	-4681
▁建设	-4682
▁wel	-4683
▁nation	-4684
▁online	-4685
▁说道	-4686
▁这儿	-4687
ureau	-4688
▁figure	-4689
▁机场	-4690
▁阅读	-4691
▁迅速	-4692
▁现实	-4693
▁角色	-4694
▁帐	-4695
ground	-4696
▁basic	-4697
▁约翰	-4698
▁Shan	-4699
rial	-4700
ervation	-4701
▁season	-4702
▁想象	-4703
▁save	-4704
▁仪	-4705
▁理由	-4706
▁坏	-4707
▁网上	-4708
▁oppos	-4709
▁March	-4710
ulations	-4711
The	-4712
▁调整	-4713
iar	-4714
▁概念	-4715
ighb	-4716
▁produce	-4717
▁message	-4718
eor	-4719
▁Admin	-4720
▁grand	-4721
▁points	-4722
othes	-4723
▁heat	-4724
▁machine	-4725
▁医院	-4726
arden	-4727
▁在于	-4728
epend	-4729
▁替	-4730
error	-4731
▁century	-4732
▁以便	-4733
▁govern	-4734
▁体育	-4735
▁打开	-4736
idge	-4737
▁stage	-4738
▁stock	-4739
▁train	-4740
▁威胁	-4741
lection	-4742
▁Ag	-4743
▁emb	-4744
eral	-4745
▁plans	-4746
▁拖	-4747
▁九龙	-4748
▁medical	-4749
▁efforts	-4750
▁meaning	-4751
▁周围	-4752
phone	-4753
▁利益	-4754
ament	-4755
▁towards	-4756
▁图书	-4757
▁面临	-4758
▁下面	-4759
▁transport	-4760
ades	-4761
▁growing	-4762
▁requirements	-4763
▁谘	-4764
▁clos	-4765
▁掌	-4766
▁下午	-4767
ript	-4768
▁emot	-4769
▁spread	-4770
IN	-4771
▁另一	-4772
▁huge	-4773
▁calc	-4774
▁easily	-4775
agn	-4776
▁案	-4777
▁量	-4778
▁places	-4779
▁不想	-4780
▁refer	-4781
▁complex	-4782
▁以为	-4783
ecutive	-4784
▁原则	-4785
▁公布	-4786
▁hit	-4787
▁din	-4788
▁projects	-4789
▁牌	-4790
▁本身	-4791
▁syn	-4792
▁融	-4793
▁怀疑	-4794
电话	-4795
▁多么	-4796
▁section	-4797
sequ	-4798
VD	-4799
▁互联	-4800
▁之中	-4801
hood	-4802
▁crisis	-4803
▁私人	-4804
▁arch	-4805
▁officials	-4806
▁运输	-4807
▁属于	-4808
中心	-4809
▁大约	-4810
▁财政	-4811
▁deb	-4812
▁contain	-4813
▁establish	-4814
▁page	-4815
▁破坏	-4816
▁资助	-4817
ession	-4818
▁成立	-4819
▁Med	-4820
▁response	-4821
▁粉	-4822
izing	-4823
▁最佳	-4824
ulated	-4825
▁综合	-4826
▁Kow	-4827
uel	-4828
▁Dav	-4829
▁相对	-4830
▁document	-4831
loon	-4832
巴马	-4833
▁床	-4834
▁开放	-4835
▁Kowloon	-4836
▁department	-4837
▁install	-4838
▁roll	-4839
▁rights	-4840
▁recomm	-4841
▁feed	-4842
▁caused	-4843
hern	-4844
▁enterpr	-4845
▁寄	-4846
▁pleas	-4847
▁normal	-4848
ES	-4849
▁vict	-4850
▁毒	-4851
▁享受	-4852
lebr	-4853
▁rise	-4854
▁neighb	-4855
▁平均	-4856
▁Afric	-4857
iers	-4858
▁Air	-4859
▁income	-4860
▁冒	-4861
▁street	-4862
▁右	-4863
▁heavy	-4864
▁灯	-4865
hel	-4866
▁Dece	-4867
▁真是	-4868
▁interview	-4869
▁Am	-4870
▁真实	-4871
▁accom	-4872
▁basis	-4873
▁雨	-4874
▁reve	-4875
▁shown	-4876
▁created	-4877
obile	-4878
▁Offr	-4879
▁markets	-4880
imum	-4881
▁kept	-4882
▁born	-4883
▁charge	-4884
▁敌	-4885
▁划	-4886
▁药物	-4887
IC	-4888
▁互联网	-4889
▁region	-4890
▁purpose	-4891
erson	-4892
▁bright	-4893
▁student	-4894
▁情绪	-4895
▁susp	-4896
IT	-4897
▁file	-4898
▁showed	-4899
资料	-4900
▁dri	-4901
umn	-4902
▁affect	-4903
▁额	-4904
▁toward	-4905
▁immedi	-4906
▁researchers	-4907
uen	-4908
▁proced	-4909
▁弄	-4910
▁贷款	-4911
▁Special	-4912
▁December	-4913
▁eight	-4914
▁favor	-4915
▁arrange	-4916
ina	-4917
▁secret	-4918
▁comfort	-4919
▁reflect	-4920
▁创建	-4921
ctions	-4922
▁esc	-4923
wise	-4924
▁纯	-4925
▁主席	-4926
▁放弃	-4927
road	-4928
▁要是	-4929
▁记者	-4930
▁Kore	-4931
▁缺乏	-4932
▁耳	-4933
▁助理	-4934
▁Author	-4935
▁equipment	-4936
▁immediately	-4937
▁Group	-4938
▁攻击	-4939
▁协助	-4940
rog	-4941
▁board	-4942
▁drive	-4943
▁出去	-4944
▁reach	-4945
▁理想	-4946
▁cool	-4947
▁ord	-4948
▁泰	-4949
▁某种	-4950
lear	-4951
▁population	-4952
▁汉	-4953
▁average	-4954
▁positive	-4955
▁设置	-4956
▁receive	-4957
▁插	-4958
▁分别	-4959
▁listen	-4960
▁粗	-4961
▁State	-4962
▁汤	-4963
▁露	-4964
▁occur	-4965
iable	-4966
▁基督	-4967
▁medic	-4968
▁qual	-4969
▁doubt	-4970
▁看着	-4971
▁die	-4972
▁Cour	-4973
▁paid	-4974
▁DVD	-4975
▁fell	-4976
罗斯	-4977
▁装置	-4978
▁disapp	-4979
▁Form	-4980
▁录	-4981
▁媒体	-4982
▁hab	-4983
▁Trans	-4984
▁reading	-4985
▁那儿	-4986
▁System	-4987
aul	-4988
▁goal	-4989
▁网页	-4990
▁breat	-4991
▁明天	-4992
▁展示	-4993
▁mer	-4994
▁banks	-4995
▁export	-4996
▁version	-4997
▁老板	-4998
erem	-4999
▁East	-5000
▁主题	-5001
▁Cons	-5002
▁咖啡	-5003
▁survey	-5004
▁Ho	-5005
▁覆	-5006
uild	-5007
▁vill	-5008
▁activity	-5009
▁physical	-5010
▁就要	-5011
▁结婚	-5012
ik	-5013
▁─	-5014
▁At	-5015
▁TV	-5016
▁萨	-5017
▁June	-5018
▁圣诞	-5019
▁移动	-5020
ties	-5021
▁後	-5022
▁resist	-5023
▁培训	-5024
▁奥巴马	-5025
oming	-5026
▁改革	-5027
▁方便	-5028
▁allowed	-5029
▁选举	-5030
▁结论	-5031
▁Jes	-5032
▁授	-5033
▁remain	-5034
▁und	-5035
▁science	-5036
▁全国	-5037
mission	-5038
urch	-5039
▁仿	-5040
▁theory	-5041
▁For	-5042
▁估	-5043
▁groups	-5044
▁防止	-5045
▁log	-5046
▁Central	-5047
▁皮肤	-5048
▁接触	-5049
▁touch	-5050
lier	-5051
▁商品	-5052
▁protection	-5053
▁display	-5054
▁邀	-5055
▁evidence	-5056
▁Sw	-5057
▁reported	-5058
▁给予	-5059
▁window	-5060
▁塞	-5061
verse	-5062
▁爱情	-5063
▁den	-5064
▁应用程序	-5065
▁station	-5066
▁适当	-5067
▁Sept	-5068
▁荣	-5069
▁professional	-5070
▁碰	-5071
▁sweet	-5072
arily	-5073
▁military	-5074
▁还要	-5075
▁member	-5076
▁effort	-5077
▁守	-5078
adem	-5079
▁伸	-5080
sp	-5081
▁下降	-5082
▁dry	-5083
▁daughter	-5084
▁代理	-5085
oring	-5086
▁giving	-5087
▁民主	-5088
▁制定	-5089
▁prior	-5090
▁正式	-5091
▁院	-5092
▁defin	-5093
▁extra	-5094
▁地址	-5095
EN	-5096
▁流行	-5097
▁胡	-5098
▁concl	-5099
▁待	-5100
▁现象	-5101
▁善	-5102
▁章	-5103
▁备	-5104
▁打算	-5105
▁bag	-5106
▁baby	-5107
▁弹	-5108
▁celebr	-5109
ares	-5110
▁gives	-5111
事处	-5112
▁35	-5113
▁evening	-5114
▁忽	-5115
▁递	-5116
▁中央	-5117
▁soul	-5118
▁定义	-5119
▁补充	-5120
▁第一个	-5121
拉克	-5122
ulf	-5123
▁强烈	-5124
▁正是	-5125
iance	-5126
▁剧	-5127
▁耐	-5128
▁Mrs	-5129
▁孤	-5130
▁博士	-5131
▁song	-5132
▁探讨	-5133
▁rules	-5134
▁designed	-5135
▁forg	-5136
▁发布	-5137
▁针对	-5138
▁薪	-5139
▁exchange	-5140
▁诚	-5141
▁修订	-5142
▁界	-5143
▁国内	-5144
▁80	-5145
▁参考	-5146
▁留下	-5147
▁har	-5148
▁passed	-5149
amb	-5150
▁existing	-5151
orry	-5152
▁骑	-5153
ears	-5154
▁嘴	-5155
葡萄	-5156
▁年龄	-5157
▁中间	-5158
▁喷	-5159
irection	-5160
rom	-5161
▁回家	-5162
▁studies	-5163
▁inform	-5164
▁麽	-5165
▁感谢	-5166
▁墙	-5167
▁Aust	-5168
▁桌	-5169
cy	-5170
▁series	-5171
▁master	-5172
▁magn	-5173
▁animals	-5174
▁详细	-5175
ength	-5176
▁earlier	-5177
▁投资者	-5178
▁choice	-5179
zy	-5180
▁基因	-5181
▁兴趣	-5182
▁command	-5183
▁这件	-5184
▁Prot	-5185
▁三十	-5186
▁appropri	-5187
▁pattern	-5188
▁征	-5189
▁psych	-5190
▁track	-5191
▁雅	-5192
▁Sm	-5193
oses	-5194
▁opening	-5195
▁维持	-5196
▁外国	-5197
AC	-5198
▁些	-5199
▁相同	-5200
▁exact	-5201
▁match	-5202
▁weak	-5203
▁载	-5204
iles	-5205
▁迈	-5206
▁temperature	-5207
▁recently	-5208
▁bound	-5209
▁言	-5210
unk	-5211
▁版本	-5212
▁experi	-5213
▁他人	-5214
▁Kw	-5215
▁考试	-5216
▁资产	-5217
▁anti	-5218
anch	-5219
▁更新	-5220
▁famous	-5221
▁origin	-5222
▁侵	-5223
▁段	-5224
▁suddenly	-5225
▁Oct	-5226
▁跨	-5227
▁central	-5228
▁planning	-5229
▁understanding	-5230
▁梦想	-5231
▁note	-5232
▁静	-5233
▁推动	-5234
▁提升	-5235
▁pros	-5236
mark	-5237
yond	-5238
▁祝	-5239
▁spent	-5240
▁reasons	-5241
▁规则	-5242
▁despite	-5243
▁speaking	-5244
▁年度	-5245
▁City	-5246
▁地点	-5247
▁有助	-5248
▁掉	-5249
▁诊	-5250
▁degree	-5251
▁corpor	-5252
▁团队	-5253
ocks	-5254
▁restr	-5255
▁想到	-5256
▁摇	-5257
▁交流	-5258
▁灰	-5259
▁Fin	-5260
▁died	-5261
ox	-5262
▁college	-5263
▁奶	-5264
▁男性	-5265
▁trees	-5266
iny	-5267
aled	-5268
▁嘉	-5269
▁糖	-5270
▁July	-5271
▁French	-5272
▁Sur	-5273
▁whom	-5274
▁上升	-5275
▁Park	-5276
▁directly	-5277
oe	-5278
▁偶	-5279
▁spokesman	-5280
▁危机	-5281
▁sale	-5282
▁Jesus	-5283
▁驾驶	-5284
uate	-5285
▁independ	-5286
▁September	-5287
▁航空	-5288
nal	-5289
▁充分	-5290
▁Par	-5291
▁律师	-5292
vere	-5293
▁pow	-5294
▁Cor	-5295
▁nice	-5296
mes	-5297
▁这时	-5298
▁Ear	-5299
▁spring	-5300
▁截	-5301
▁陷	-5302
斯坦	-5303
unic	-5304
▁Pre	-5305
▁Soc	-5306
▁scientists	-5307
▁和平	-5308
▁nearly	-5309
▁发行	-5310
▁happiness	-5311
▁承诺	-5312
▁trip	-5313
▁counter	-5314
▁邻	-5315
▁Cert	-5316
▁forget	-5317
▁∶	-5318
▁像是	-5319
▁状况	-5320
▁地位	-5321
▁increased	-5322
▁lose	-5323
▁beyond	-5324
▁daily	-5325
▁extreme	-5326
▁俄罗斯	-5327
▁correct	-5328
▁气候	-5329
▁邀请	-5330
▁ice	-5331
▁House	-5332
oms	-5333
▁compon	-5334
▁latest	-5335
▁到达	-5336
▁特征	-5337
▁神经	-5338
▁picture	-5339
▁缩	-5340
▁具体	-5341
▁original	-5342
▁vide	-5343
▁西方	-5344
▁manager	-5345
▁甲	-5346
▁pan	-5347
▁名称	-5348
▁趋	-5349
▁心里	-5350
▁sight	-5351
▁很少	-5352
▁证书	-5353
like	-5354
▁talking	-5355
▁relative	-5356
▁断	-5357
▁误	-5358
▁disp	-5359
▁魔	-5360
▁electric	-5361
osis	-5362
▁添	-5363
▁诺	-5364
▁双方	-5365
▁argu	-5366
▁rout	-5367
▁Em	-5368
▁警告	-5369
▁团体	-5370
▁damage	-5371
▁消费者	-5372
▁按照	-5373
bon	-5374
▁Zh	-5375
▁基于	-5376
▁创新	-5377
▁surv	-5378
▁Technology	-5379
▁爸	-5380
▁Law	-5381
▁cells	-5382
▁confir	-5383
▁葡萄	-5384
▁皇	-5385
▁joint	-5386
▁能量	-5387
▁预测	-5388
组织	-5389
▁合理	-5390
▁那时	-5391
▁敏	-5392
▁tick	-5393
▁驱	-5394
▁感染	-5395
▁丰富	-5396
ashing	-5397
▁proposed	-5398
▁来源	-5399
▁acqu	-5400
▁触	-5401
▁早上	-5402
enced	-5403
▁involved	-5404
▁clothes	-5405
▁customer	-5406
▁sen	-5407
iciency	-5408
▁couple	-5409
ux	-5410
▁greater	-5411
▁石油	-5412
▁管制	-5413
▁资格	-5414
▁cast	-5415
▁opin	-5416
▁boss	-5417
▁免费	-5418
▁记得	-5419
▁forest	-5420
aign	-5421
▁advice	-5422
▁waiting	-5423
iled	-5424
▁款	-5425
▁advert	-5426
▁鸟	-5427
▁worked	-5428
▁肌	-5429
asc	-5430
▁集中	-5431
▁types	-5432
▁memory	-5433
▁当中	-5434
▁Ac	-5435
▁合同	-5436
▁有所	-5437
▁特定	-5438
▁时刻	-5439
ests	-5440
▁fort	-5441
▁phil	-5442
▁thee	-5443
▁opened	-5444
▁costs	-5445
▁Authority	-5446
▁伤害	-5447
▁年轻人	-5448
▁quiet	-5449
▁certainly	-5450
服务	-5451
▁唱	-5452
▁changed	-5453
▁Ab	-5454
▁Bank	-5455
▁influence	-5456
玻璃	-5457
▁indeed	-5458
▁举办	-5459
▁狂	-5460
▁固定	-5461
▁happened	-5462
aven	-5463
▁检测	-5464
▁Dis	-5465
▁苦	-5466
▁病毒	-5467
▁beauty	-5468
▁His	-5469
▁频	-5470
▁不错	-5471
▁秘书	-5472
▁伴	-5473
set	-5474
▁completed	-5475
▁bill	-5476
▁liter	-5477
▁continued	-5478
apt	-5479
▁不用	-5480
▁公务	-5481
▁Lib	-5482
上去	-5483
▁鸡	-5484
▁chemical	-5485
▁液	-5486
▁当局	-5487
▁Obama	-5488
▁车辆	-5489
hest	-5490
▁女士	-5491
▁carried	-5492
▁concerned	-5493
▁蒙	-5494
reg	-5495
▁established	-5496
▁cash	-5497
hens	-5498
▁load	-5499
▁center	-5500
▁性能	-5501
▁direction	-5502
▁议员	-5503
▁酒店	-5504
acity	-5505
▁Director	-5506
▁叶	-5507
▁景	-5508
▁塑	-5509
▁座	-5510
lly	-5511
▁假如	-5512
▁liqu	-5513
▁rapid	-5514
▁隔	-5515
尼亚	-5516
▁cove	-5517
▁完美	-5518
▁详情	-5519
▁Stud	-5520
▁灾	-5521
apter	-5522
▁抑	-5523
▁events	-5524
▁skills	-5525
▁snow	-5526
▁responsible	-5527
▁祖	-5528
▁hyd	-5529
▁哥	-5530
▁rob	-5531
▁convers	-5532
aries	-5533
▁nut	-5534
▁Bus	-5535
▁ancient	-5536
▁一套	-5537
▁证据	-5538
iced	-5539
▁click	-5540
overed	-5541
ma	-5542
.6	-5543
距离	-5544
▁同事	-5545
▁否则	-5546
stit	-5547
▁图书馆	-5548
▁coff	-5549
▁sorry	-5550
▁浓	-5551
▁谢谢	-5552
▁forms	-5553
▁suppl	-5554
erved	-5555
▁moving	-5556
▁ge	-5557
▁焦	-5558
▁联络	-5559
▁species	-5560
▁春	-5561
▁流动	-5562
▁particularly	-5563
▁中文	-5564
▁页	-5565
AS	-5566
▁架	-5567
▁信号	-5568
▁普遍	-5569
imited	-5570
▁faith	-5571
kn	-5572
▁全面	-5573
▁crow	-5574
▁restaur	-5575
▁pun	-5576
▁有趣	-5577
raid	-5578
▁ton	-5579
▁塔	-5580
▁漂亮	-5581
▁pet	-5582
▁Japanese	-5583
▁森	-5584
ORD	-5585
▁大脑	-5586
▁宗教	-5587
▁adjust	-5588
▁cyc	-5589
▁enem	-5590
▁stra	-5591
▁circum	-5592
oo	-5593
▁amb	-5594
▁义	-5595
▁90	-5596
▁Year	-5597
分钟	-5598
▁obv	-5599
▁wis	-5600
▁block	-5601
▁197	-5602
pe	-5603
irt	-5604
▁ep	-5605
▁David	-5606
▁礼物	-5607
▁brief	-5608
fl	-5609
▁推出	-5610
▁egg	-5611
▁fit	-5612
▁respond	-5613
▁Americans	-5614
▁mill	-5615
key	-5616
ificate	-5617
▁difference	-5618
▁mal	-5619
▁National	-5620
▁松	-5621
▁湿	-5622
omet	-5623
▁看来	-5624
▁Ms	-5625
▁冬	-5626
▁预计	-5627
▁factors	-5628
▁工人	-5629
ui	-5630
▁男孩	-5631
▁Feb	-5632
▁ideas	-5633
vent	-5634
▁river	-5635
▁典	-5636
▁笔	-5637
▁standing	-5638
▁相比	-5639
mas	-5640
▁见到	-5641
▁丢	-5642
▁gets	-5643
▁promote	-5644
ipl	-5645
▁别的	-5646
▁afraid	-5647
▁length	-5648
▁statement	-5649
▁facilities	-5650
▁两年	-5651
ctors	-5652
▁burn	-5653
ED	-5654
▁joy	-5655
▁polic	-5656
▁从事	-5657
▁wear	-5658
▁clin	-5659
▁批准	-5660
▁demon	-5661
▁trouble	-5662
▁willing	-5663
▁搭	-5664
▁70	-5665
▁乡	-5666
▁quant	-5667
▁cancer	-5668
▁prepared	-5669
▁solution	-5670
▁documents	-5671
▁手机	-5672
▁prem	-5673
▁州	-5674
▁库	-5675
▁般	-5676
▁刺激	-5677
▁web	-5678
▁rare	-5679
ober	-5680
▁nuc	-5681
▁工厂	-5682
EC	-5683
uted	-5684
▁人数	-5685
▁sad	-5686
▁returned	-5687
▁村	-5688
▁多年	-5689
istered	-5690
▁一片	-5691
▁能源	-5692
▁偷	-5693
▁task	-5694
▁尚	-5695
▁大型	-5696
▁推广	-5697
▁飞行	-5698
▁婚姻	-5699
▁记忆	-5700
vest	-5701
▁pal	-5702
▁career	-5703
▁学会	-5704
▁mention	-5705
▁甜	-5706
▁例子	-5707
▁cultural	-5708
.0	-5709
▁茶	-5710
arr	-5711
▁某个	-5712
ography	-5713
▁愉	-5714
gar	-5715
▁混合	-5716
▁monitor	-5717
▁上海	-5718
▁eval	-5719
.8	-5720
▁董	-5721
▁domestic	-5722
▁fing	-5723
▁apprec	-5724
▁unless	-5725
▁appropriate	-5726
oration	-5727
▁建造	-5728
▁benefits	-5729
▁大小	-5730
▁Cap	-5731
▁公务员	-5732
▁爸爸	-5733
▁海洋	-5734
arent	-5735
igation	-5736
na	-5737
▁同一	-5738
▁rates	-5739
▁挂	-5740
▁ult	-5741
osing	-5742
ML	-5743
▁请求	-5744
▁幼	-5745
▁运作	-5746
▁hotel	-5747
▁occas	-5748
▁hospital	-5749
▁声明	-5750
▁flat	-5751
.7	-5752
▁spot	-5753
▁fruit	-5754
▁LORD	-5755
▁playing	-5756
▁申请人	-5757
▁展开	-5758
▁bear	-5759
▁animal	-5760
▁黑暗	-5761
▁500	-5762
▁Sat	-5763
isation	-5764
▁乌	-5765
▁尖	-5766
▁整体	-5767
▁generally	-5768
ipe	-5769
▁一边	-5770
▁ign	-5771
▁thousands	-5772
50	-5773
▁凡	-5774
▁美好	-5775
▁准确	-5776
overy	-5777
atever	-5778
▁enhance	-5779
▁published	-5780
▁用途	-5781
▁bud	-5782
▁dont	-5783
▁moved	-5784
▁一座	-5785
▁示	-5786
▁云	-5787
▁庆	-5788
▁头发	-5789
▁货币	-5790
▁electronic	-5791
▁漫	-5792
▁图像	-5793
▁相互	-5794
▁一致	-5795
▁是不是	-5796
▁Management	-5797
▁思考	-5798
▁财务	-5799
▁On	-5800
▁出生	-5801
▁等待	-5802
back	-5803
▁心脏	-5804
ams	-5805
▁luck	-5806
▁stood	-5807
▁useful	-5808
▁telephone	-5809
▁occup	-5810
▁clim	-5811
▁温度	-5812
▁Republic	-5813
▁smile	-5814
▁King	-5815
▁国王	-5816
▁catch	-5817
▁October	-5818
▁哪里	-5819
▁来看	-5820
▁Val	-5821
order	-5822
20	-5823
▁除非	-5824
▁leading	-5825
▁结合	-5826
▁All	-5827
reed	-5828
de	-5829
▁哭	-5830
terday	-5831
▁yell	-5832
▁持有	-5833
▁Div	-5834
▁ahead	-5835
▁optim	-5836
▁渴	-5837
▁Qu	-5838
▁labor	-5839
ague	-5840
▁损失	-5841
▁不久	-5842
▁更为	-5843
▁高度	-5844
▁Char	-5845
▁寻求	-5846
▁coop	-5847
▁感受	-5848
▁reb	-5849
▁agreement	-5850
▁repe	-5851
▁肥	-5852
银行	-5853
▁宣传	-5854
氧化	-5855
▁依然	-5856
▁ran	-5857
▁healthy	-5858
▁marriage	-5859
▁completely	-5860
伙伴	-5861
▁体系	-5862
▁lived	-5863
▁缴	-5864
▁Mic	-5865
▁苹	-5866
▁histor	-5867
▁wealth	-5868
▁capt	-5869
▁accur	-5870
▁items	-5871
▁parties	-5872
▁reached	-5873
▁金属	-5874
▁remains	-5875
▁jobs	-5876
▁小心	-5877
▁办事处	-5878
▁knows	-5879
▁eating	-5880
▁忙	-5881
▁欣	-5882
▁Tom	-5883
▁雇员	-5884
▁马上	-5885
▁聪	-5886
iang	-5887
▁Per	-5888
▁通告	-5889
▁rule	-5890
生活	-5891
▁预防	-5892
▁害怕	-5893
▁平衡	-5894
▁sitting	-5895
▁cit	-5896
▁对此	-5897
▁曲	-5898
▁羊	-5899
▁出版	-5900
▁意外	-5901
▁男子	-5902
▁freed	-5903
▁对方	-5904
▁cities	-5905
▁功能	-5906
▁sand	-5907
▁learned	-5908
▁赢得	-5909
antly	-5910
▁straight	-5911
▁Ts	-5912
▁废物	-5913
▁重大	-5914
▁片	-5915
▁standards	-5916
▁prefer	-5917
islative	-5918
xic	-5919
▁终于	-5920
right	-5921
▁India	-5922
▁covered	-5923
▁代码	-5924
▁eth	-5925
▁看上去	-5926
▁击	-5927
▁uses	-5928
rences	-5929
▁becomes	-5930
▁稍	-5931
.9	-5932
▁whatever	-5933
▁构成	-5934
▁职位	-5935
▁stick	-5936
elf	-5937
▁remind	-5938
ghai	-5939
▁乳	-5940
▁牧	-5941
▁营养	-5942
▁lik	-5943
▁苹果	-5944
tained	-5945
▁leaves	-5946
▁Aug	-5947
▁yesterday	-5948
大利	-5949
▁著名	-5950
▁两种	-5951
▁的确	-5952
▁flowers	-5953
▁扫	-5954
▁connect	-5955
▁chair	-5956
omen	-5957
▁controll	-5958
lder	-5959
▁schools	-5960
▁Earth	-5961
▁depend	-5962
▁reports	-5963
rs	-5964
board	-5965
aid	-5966
eremony	-5967
▁followed	-5968
rend	-5969
▁Island	-5970
▁active	-5971
zz	-5972
ius	-5973
mitted	-5974
▁fully	-5975
▁behavior	-5976
▁输入	-5977
duc	-5978
▁ID	-5979
agon	-5980
▁不足	-5981
▁保障	-5982
▁现有	-5983
plication	-5984
▁teaching	-5985
▁transfer	-5986
▁艰	-5987
▁立即	-5988
▁剩	-5989
nel	-5990
▁紧张	-5991
ruary	-5992
▁advantage	-5993
▁明确	-5994
▁格式	-5995
▁rat	-5996
▁scale	-5997
▁套	-5998
▁运用	-5999
▁unique	-6000
▁annual	-6001
▁announced	-6002
▁穿着	-6003
▁指引	-6004
ancing	-6005
▁Fund	-6006
ertain	-6007
▁employees	-6008
▁max	-6009
▁Program	-6010
▁February	-6011
▁级	-6012
▁veget	-6013
▁competition	-6014
▁生长	-6015
▁tea	-6016
▁failure	-6017
▁developing	-6018
▁店	-6019
▁临时	-6020
▁特性	-6021
vention	-6022
▁即将	-6023
▁疯	-6024
▁震	-6025
▁毕业	-6026
▁消失	-6027
▁特点	-6028
▁wine	-6029
▁reform	-6030
▁sports	-6031
▁welcome	-6032
▁显得	-6033
▁features	-6034
▁dinner	-6035
▁Not	-6036
▁返	-6037
▁分享	-6038
▁pretty	-6039
tenance	-6040
▁地震	-6041
▁逐渐	-6042
▁一九	-6043
▁none	-6044
▁射	-6045
▁insurance	-6046
垃圾	-6047
▁当前	-6048
istrative	-6049
▁后面	-6050
▁amp	-6051
▁文章	-6052
▁highly	-6053
▁旋	-6054
▁spl	-6055
RA	-6056
▁休息	-6057
▁角度	-6058
▁糟	-6059
▁数码	-6060
▁winter	-6061
▁Rec	-6062
▁强调	-6063
▁第四	-6064
▁自行	-6065
▁maintain	-6066
ashion	-6067
▁relig	-6068
hibition	-6069
▁季	-6070
▁询	-6071
ses	-6072
▁适应	-6073
▁driving	-6074
▁throughout	-6075
ole	-6076
▁virt	-6077
▁happen	-6078
▁Shanghai	-6079
▁buildings	-6080
▁kill	-6081
▁Build	-6082
▁阳光	-6083
▁debt	-6084
12	-6085
idel	-6086
▁诱	-6087
不起	-6088
▁合约	-6089
▁玻璃	-6090
▁shape	-6091
▁居住	-6092
▁标志	-6093
▁住宅	-6094
▁flight	-6095
▁命令	-6096
▁每次	-6097
▁candid	-6098
▁钻	-6099
▁payment	-6100
▁confidence	-6101
▁interested	-6102
▁垃圾	-6103
ran	-6104
▁billion	-6105
▁reference	-6106
▁爬	-6107
▁聪明	-6108
▁意大利	-6109
▁婴	-6110
▁烧	-6111
▁tit	-6112
ternal	-6113
hy	-6114
▁chief	-6115
ender	-6116
▁Nove	-6117
▁班	-6118
▁辩	-6119
▁married	-6120
兄弟	-6121
▁communication	-6122
▁丹	-6123
▁不必	-6124
▁花园	-6125
▁Chief	-6126
▁展览	-6127
▁显然	-6128
apped	-6129
▁地上	-6130
▁好处	-6131
▁garden	-6132
amin	-6133
▁units	-6134
▁scheme	-6135
▁下列	-6136
▁duty	-6137
▁consc	-6138
▁destro	-6139
▁集团	-6140
▁Bar	-6141
▁Lab	-6142
▁Housing	-6143
ops	-6144
▁mut	-6145
▁Cal	-6146
▁unf	-6147
▁其他人	-6148
▁呆	-6149
▁实在	-6150
inct	-6151
▁dollars	-6152
▁接近	-6153
▁董事	-6154
▁filled	-6155
▁allows	-6156
▁patient	-6157
▁device	-6158
▁加拿	-6159
▁家人	-6160
▁表演	-6161
▁sym	-6162
▁limit	-6163
▁numbers	-6164
▁练	-6165
▁支援	-6166
▁资本	-6167
▁盛	-6168
nes	-6169
▁我国	-6170
▁早期	-6171
▁Offic	-6172
▁applied	-6173
▁相反	-6174
aches	-6175
▁serve	-6176
▁status	-6177
▁vot	-6178
▁November	-6179
▁售	-6180
▁通讯	-6181
▁aftern	-6182
▁加拿大	-6183
▁hang	-6184
▁moon	-6185
▁手术	-6186
▁campaign	-6187
▁欧盟	-6188
▁物品	-6189
▁Olympic	-6190
▁午	-6191
▁technical	-6192
▁捕	-6193
▁几年	-6194
▁自身	-6195
▁investors	-6196
▁添加	-6197
▁symb	-6198
▁教学	-6199
▁cru	-6200
aration	-6201
▁compared	-6202
tered	-6203
▁一系列	-6204
▁fif	-6205
▁south	-6206
▁鞋	-6207
▁frame	-6208
▁demonst	-6209
▁mine	-6210
▁strugg	-6211
▁信用	-6212
▁参观	-6213
▁满意	-6214
▁iron	-6215
▁thousand	-6216
▁懂	-6217
▁dyn	-6218
▁原来	-6219
▁Do	-6220
▁慈	-6221
▁成就	-6222
▁所说	-6223
▁权力	-6224
▁Ed	-6225
▁更改	-6226
▁mel	-6227
▁常见	-6228
▁认可	-6229
IS	-6230
▁答案	-6231
▁shar	-6232
▁批评	-6233
▁thick	-6234
▁小型	-6235
▁sector	-6236
▁bow	-6237
▁Phil	-6238
▁=	-6239
▁田	-6240
▁非洲	-6241
▁本港	-6242
aren	-6243
▁+	-6244
▁thanks	-6245
▁additional	-6246
▁哦	-6247
▁韩	-6248
▁民族	-6249
▁accident	-6250
▁一半	-6251
amic	-6252
oles	-6253
▁接着	-6254
▁抛	-6255
▁禁止	-6256
▁秘密	-6257
▁steps	-6258
▁Austral	-6259
▁菜	-6260
▁廉	-6261
force	-6262
▁quot	-6263
▁produced	-6264
▁吹	-6265
▁Gl	-6266
▁保留	-6267
▁股票	-6268
▁download	-6269
▁牌照	-6270
▁biggest	-6271
▁clearly	-6272
▁一会	-6273
▁合适	-6274
het	-6275
▁milk	-6276
▁slight	-6277
▁grant	-6278
▁Report	-6279
▁appeared	-6280
▁可靠	-6281
▁途	-6282
▁鲜	-6283
book	-6284
▁hung	-6285
▁join	-6286
▁organization	-6287
▁couldn	-6288
▁balance	-6289
▁数目	-6290
▁评价	-6291
amer	-6292
▁Mark	-6293
▁responsibility	-6294
▁就业	-6295
▁Christmas	-6296
▁反映	-6297
▁恐惧	-6298
▁innov	-6299
▁desire	-6300
ls	-6301
▁年代	-6302
ike	-6303
▁呼吸	-6304
mon	-6305
▁mechanism	-6306
▁television	-6307
▁unit	-6308
▁猜	-6309
▁机械	-6310
▁mir	-6311
▁plants	-6312
ny	-6313
▁墨	-6314
▁Mac	-6315
▁interesting	-6316
▁earn	-6317
▁法院	-6318
enge	-6319
▁Mich	-6320
▁island	-6321
▁previous	-6322
▁pray	-6323
▁valid	-6324
▁仔	-6325
▁symbol	-6326
ugg	-6327
▁退休	-6328
▁Canad	-6329
▁coffee	-6330
▁Limited	-6331
▁cup	-6332
▁August	-6333
▁male	-6334
▁afternoon	-6335
▁pair	-6336
▁owners	-6337
▁remark	-6338
▁benefit	-6339
▁introduced	-6340
▁几天	-6341
▁UN	-6342
▁犯罪	-6343
▁Your	-6344
格兰	-6345
▁佛	-6346
▁清洁	-6347
▁本书	-6348
▁fashion	-6349
▁upd	-6350
▁industrial	-6351
▁机制	-6352
▁Water	-6353
▁stone	-6354
▁neither	-6355
▁撤	-6356
itate	-6357
ibly	-6358
▁柔	-6359
▁信心	-6360
▁服务器	-6361
▁猫	-6362
▁obl	-6363
antic	-6364
▁响	-6365
▁diet	-6366
▁wed	-6367
▁sac	-6368
▁strate	-6369
▁female	-6370
▁忠	-6371
▁wasn	-6372
▁includes	-6373
kong	-6374
▁ordin	-6375
▁矿	-6376
▁协会	-6377
▁打电话	-6378
▁arms	-6379
▁Stamp	-6380
▁strategy	-6381
▁conclusion	-6382
▁事业	-6383
cean	-6384
▁gent	-6385
ata	-6386
▁渔	-6387
▁Assoc	-6388
ha	-6389
▁临床	-6390
▁pig	-6391
aling	-6392
▁largest	-6393
11	-6394
▁学院	-6395
▁Bureau	-6396
▁释	-6397
▁多个	-6398
▁registration	-6399
▁荒	-6400
▁评论	-6401
▁wrote	-6402
▁challeng	-6403
▁地下	-6404
▁微笑	-6405
▁绝对	-6406
▁始	-6407
▁partners	-6408
部门	-6409
▁depos	-6410
eless	-6411
▁attend	-6412
porary	-6413
▁承担	-6414
well	-6415
▁otherwise	-6416
障碍	-6417
▁之外	-6418
iveness	-6419
▁consist	-6420
▁看法	-6421
▁constit	-6422
▁Sub	-6423
gency	-6424
▁ox	-6425
▁一大	-6426
▁追求	-6427
▁Indust	-6428
▁SR	-6429
▁提醒	-6430
▁伊拉克	-6431
▁concent	-6432
rived	-6433
▁sust	-6434
▁transl	-6435
▁十一	-6436
▁loved	-6437
▁局长	-6438
▁youth	-6439
委会	-6440
oft	-6441
▁节目	-6442
▁奥运会	-6443
ship	-6444
▁What	-6445
▁altern	-6446
▁Are	-6447
▁radio	-6448
istan	-6449
▁Geor	-6450
▁School	-6451
▁贴	-6452
▁埃及	-6453
▁ded	-6454
▁产业	-6455
▁前面	-6456
▁movement	-6457
▁陪	-6458
▁道德	-6459
▁raised	-6460
▁seeing	-6461
▁45	-6462
inary	-6463
igration	-6464
▁恐怖	-6465
▁starting	-6466
▁newsp	-6467
▁persons	-6468
▁families	-6469
▁powerful	-6470
▁手段	-6471
▁提到	-6472
▁sons	-6473
▁north	-6474
▁vent	-6475
▁excell	-6476
▁事物	-6477
▁kids	-6478
▁曼	-6479
▁横	-6480
▁磁	-6481
▁sin	-6482
essel	-6483
▁forces	-6484
▁荷	-6485
▁宇	-6486
▁元素	-6487
▁sick	-6488
▁nuclear	-6489
▁horse	-6490
▁offered	-6491
eting	-6492
idential	-6493
▁33	-6494
▁身边	-6495
▁limited	-6496
▁翻译	-6497
gypt	-6498
▁确认	-6499
▁Sha	-6500
▁祭	-6501
▁衰	-6502
▁gar	-6503
▁欺	-6504
▁症	-6505
▁谷	-6506
▁以外	-6507
▁为何	-6508
▁processing	-6509
▁期望	-6510
▁tub	-6511
▁worry	-6512
▁猪	-6513
▁饮食	-6514
▁video	-6515
管理	-6516
ulture	-6517
▁minute	-6518
▁satisf	-6519
▁涂	-6520
▁湖	-6521
▁Profess	-6522
▁召	-6523
▁overall	-6524
▁日常	-6525
▁迫	-6526
▁兄弟	-6527
▁cook	-6528
▁manner	-6529
▁修改	-6530
▁Egypt	-6531
▁broken	-6532
▁believed	-6533
▁Protection	-6534
▁胸	-6535
▁布什	-6536
▁躺	-6537
▁传播	-6538
▁double	-6539
▁检讨	-6540
▁values	-6541
▁任何人	-6542
▁citiz	-6543
▁noise	-6544
▁Des	-6545
▁天空	-6546
▁将来	-6547
▁卷	-6548
round	-6549
▁Food	-6550
▁CE	-6551
▁overse	-6552
ev	-6553
▁adult	-6554
▁毁	-6555
rical	-6556
▁Company	-6557
▁organiz	-6558
ID	-6559
▁不知	-6560
▁Him	-6561
地区	-6562
▁associated	-6563
▁搬	-6564
▁迎	-6565
▁法庭	-6566
▁mort	-6567
▁回应	-6568
▁忘记	-6569
▁spect	-6570
▁有助于	-6571
▁girls	-6572
▁mountain	-6573
▁核心	-6574
▁herself	-6575
▁出售	-6576
ring	-6577
ael	-6578
▁IC	-6579
▁一生	-6580
▁背景	-6581
▁sister	-6582
rant	-6583
▁instru	-6584
NA	-6585
▁closed	-6586
▁36	-6587
▁Ital	-6588
▁bond	-6589
▁meant	-6590
▁appears	-6591
▁署长	-6592
▁渴望	-6593
▁绿色	-6594
▁Friday	-6595
10	-6596
▁caught	-6597
市场	-6598
▁军队	-6599
▁诸	-6600
▁距离	-6601
▁条款	-6602
itect	-6603
▁raise	-6604
▁四个	-6605
▁杂志	-6606
▁劳动	-6607
▁谘询	-6608
ales	-6609
semb	-6610
▁struct	-6611
▁cloth	-6612
▁strateg	-6613
出来	-6614
▁昨天	-6615
▁样子	-6616
▁bul	-6617
▁幽	-6618
wan	-6619
▁meat	-6620
encies	-6621
▁Hongkong	-6622
▁circumst	-6623
▁主人	-6624
▁fixed	-6625
▁generation	-6626
▁趋势	-6627
▁味	-6628
▁帕	-6629
▁推行	-6630
▁灵魂	-6631
iber	-6632
▁calls	-6633
aud	-6634
▁authorities	-6635
▁names	-6636
▁screen	-6637
▁Control	-6638
▁leaving	-6639
ultural	-6640
▁Court	-6641
▁lines	-6642
▁distance	-6643
rated	-6644
▁busy	-6645
▁stream	-6646
▁freedom	-6647
▁housing	-6648
▁题	-6649
hab	-6650
▁是从	-6651
▁grass	-6652
▁优势	-6653
▁顾问	-6654
aker	-6655
▁1999	-6656
▁个人资料	-6657
▁率	-6658
▁本署	-6659
▁collection	-6660
▁默	-6661
▁沟	-6662
▁programme	-6663
▁How	-6664
▁wit	-6665
▁walked	-6666
▁walking	-6667
▁人物	-6668
▁收费	-6669
▁森林	-6670
▁fee	-6671
▁throw	-6672
▁巧	-6673
▁做到	-6674
▁killed	-6675
▁Monday	-6676
▁Business	-6677
▁El	-6678
▁完整	-6679
▁海外	-6680
earch	-6681
▁enquir	-6682
▁digital	-6683
bit	-6684
▁债务	-6685
▁宁	-6686
▁洛	-6687
▁镇	-6688
resp	-6689
▁spending	-6690
▁战略	-6691
▁首次	-6692
▁aspect	-6693
▁强大	-6694
ouses	-6695
▁Jack	-6696
▁views	-6697
▁饭	-6698
▁不好	-6699
▁shr	-6700
▁opinion	-6701
▁穆	-6702
▁红色	-6703
▁这场	-6704
▁重建	-6705
umping	-6706
▁conven	-6707
▁leader	-6708
▁青年	-6709
▁capacity	-6710
itc	-6711
▁邮件	-6712
▁粘	-6713
▁奇怪	-6714
▁投票	-6715
▁196	-6716
▁soil	-6717
▁motor	-6718
▁decide	-6719
▁mainly	-6720
▁麻烦	-6721
▁bird	-6722
▁passeng	-6723
▁岛	-6724
▁设立	-6725
▁Educ	-6726
▁菲	-6727
疑问	-6728
▁依赖	-6729
ores	-6730
rehens	-6731
▁援	-6732
▁火车	-6733
▁plat	-6734
▁Ira	-6735
▁explain	-6736
▁愤	-6737
▁脂	-6738
▁Elect	-6739
▁削	-6740
▁shut	-6741
▁督	-6742
▁named	-6743
▁played	-6744
▁小姐	-6745
▁婴儿	-6746
▁corner	-6747
▁望	-6748
▁Ma	-6749
▁diss	-6750
▁组合	-6751
ospect	-6752
▁brand	-6753
za	-6754
▁我能	-6755
▁记住	-6756
▁32	-6757
▁race	-6758
▁slowly	-6759
▁地面	-6760
▁有利	-6761
ipal	-6762
▁Iraq	-6763
▁War	-6764
▁swim	-6765
▁games	-6766
▁戏	-6767
▁维护	-6768
▁购物	-6769
▁档	-6770
▁included	-6771
▁出席	-6772
ellig	-6773
▁belong	-6774
▁做法	-6775
▁包装	-6776
▁形象	-6777
acing	-6778
▁primary	-6779
▁丝	-6780
▁镜	-6781
▁分钟	-6782
▁动力	-6783
保护	-6784
▁implementation	-6785
▁partner	-6786
纤维	-6787
▁风格	-6788
▁vehicle	-6789
▁approved	-6790
▁surround	-6791
▁恰	-6792
▁England	-6793
▁feelings	-6794
▁授权	-6795
▁被告	-6796
▁setting	-6797
物馆	-6798
▁CO	-6799
▁可怕	-6800
▁智慧	-6801
▁helped	-6802
▁predict	-6803
AL	-6804
▁apart	-6805
iples	-6806
▁达成	-6807
▁湾	-6808
▁tight	-6809
▁句	-6810
▁Op	-6811
作用	-6812
袭击	-6813
▁steel	-6814
▁忍	-6815
▁监管	-6816
▁gift	-6817
▁neck	-6818
lin	-6819
▁successful	-6820
▁枪	-6821
▁Je	-6822
▁negot	-6823
▁Western	-6824
▁element	-6825
▁estim	-6826
▁importance	-6827
▁不幸	-6828
▁seat	-6829
▁gun	-6830
▁administration	-6831
▁竟	-6832
▁打击	-6833
▁浮	-6834
▁matters	-6835
▁感情	-6836
▁士	-6837
▁agreed	-6838
▁Britain	-6839
▁negative	-6840
▁薄	-6841
▁练习	-6842
▁摘	-6843
▁成长	-6844
bert	-6845
▁critic	-6846
alt	-6847
inate	-6848
ded	-6849
▁保存	-6850
ault	-6851
▁愉快	-6852
▁这份	-6853
▁variety	-6854
▁厨	-6855
▁商务	-6856
▁许可证	-6857
▁liquid	-6858
▁下去	-6859
▁独特	-6860
▁determine	-6861
▁岩	-6862
▁If	-6863
▁军事	-6864
▁relax	-6865
▁placed	-6866
▁presented	-6867
▁mobile	-6868
omb	-6869
▁对话	-6870
▁registered	-6871
▁三年	-6872
▁指导	-6873
▁报纸	-6874
▁react	-6875
▁呀	-6876
十年	-6877
▁一周	-6878
▁前往	-6879
ription	-6880
▁Econom	-6881
▁兼	-6882
▁一句	-6883
▁seed	-6884
▁birds	-6885
▁慢慢	-6886
▁白色	-6887
▁rub	-6888
▁泥	-6889
mosp	-6890
▁投入	-6891
olute	-6892
wered	-6893
▁迪	-6894
▁鉴	-6895
▁系列	-6896
odies	-6897
▁laugh	-6898
▁警方	-6899
▁commit	-6900
▁connection	-6901
▁热情	-6902
▁uns	-6903
▁噪	-6904
▁Gree	-6905
▁发挥	-6906
arant	-6907
▁cars	-6908
▁捐	-6909
▁财富	-6910
▁battle	-6911
▁boat	-6912
▁reality	-6913
▁virus	-6914
▁额外	-6915
▁helps	-6916
▁location	-6917
▁磨	-6918
▁大卫	-6919
▁expand	-6920
▁会员	-6921
▁square	-6922
▁states	-6923
▁operations	-6924
while	-6925
▁climate	-6926
▁公平	-6927
ef	-6928
ky	-6929
▁causes	-6930
ym	-6931
char	-6932
▁Cong	-6933
▁瓦	-6934
▁很难	-6935
▁这家	-6936
▁investigation	-6937
▁省	-6938
▁一月	-6939
▁opportunities	-6940
▁academ	-6941
▁Environment	-6942
EL	-6943
▁循	-6944
▁Planning	-6945
que	-6946
▁novel	-6947
▁一百	-6948
▁分布	-6949
▁lock	-6950
▁rail	-6951
ception	-6952
▁intellig	-6953
▁分子	-6954
posed	-6955
▁destroy	-6956
▁惩	-6957
▁如同	-6958
▁遵守	-6959
BC	-6960
▁雇主	-6961
▁投诉	-6962
▁tim	-6963
▁引发	-6964
▁thin	-6965
▁\	-6966
▁冠	-6967
▁大厦	-6968
▁Lands	-6969
zh	-6970
▁份	-6971
▁cou	-6972
▁演讲	-6973
▁运动员	-6974
▁recommend	-6975
▁愚	-6976
▁视为	-6977
▁生态	-6978
▁动作	-6979
▁黑色	-6980
▁solid	-6981
▁consequ	-6982
dy	-6983
▁洞	-6984
▁加工	-6985
▁stuff	-6986
▁过来	-6987
▁Circ	-6988
▁素	-6989
▁莱	-6990
▁糟糕	-6991
my	-6992
▁从未	-6993
▁连续	-6994
▁dangerous	-6995
▁鼻	-6996
▁CH	-6997
ours	-6998
▁ring	-6999
▁凝	-7000
▁梅	-7001
▁IS	-7002
▁希腊	-7003
▁der	-7004
▁essential	-7005
▁wave	-7006
▁Sunday	-7007
▁Unit	-7008
▁election	-7009
▁Trade	-7010
比亚	-7011
▁领导人	-7012
▁fal	-7013
▁fill	-7014
▁培养	-7015
▁Pal	-7016
▁datab	-7017
▁affected	-7018
▁候	-7019
▁strange	-7020
▁疲	-7021
▁贪	-7022
uk	-7023
▁rose	-7024
▁interp	-7025
▁quarter	-7026
▁霍	-7027
▁杰克	-7028
ushed	-7029
▁sites	-7030
▁district	-7031
▁tools	-7032
▁release	-7033
▁剪	-7034
▁维修	-7035
▁新界	-7036
▁dear	-7037
▁laws	-7038
▁failed	-7039
▁deliver	-7040
▁director	-7041
▁Que	-7042
▁Korea	-7043
▁Hon	-7044
▁god	-7045
▁kiss	-7046
▁senior	-7047
▁党	-7048
ocol	-7049
▁全世界	-7050
▁testing	-7051
▁institutions	-7052
▁地说	-7053
▁彼此	-7054
▁fuel	-7055
▁exactly	-7056
▁university	-7057
▁工程师	-7058
▁empt	-7059
▁urban	-7060
▁expression	-7061
▁辛	-7062
▁小说	-7063
▁Bush	-7064
▁术	-7065
▁生存	-7066
▁覆盖	-7067
▁id	-7068
▁预算	-7069
▁转变	-7070
▁unlike	-7071
▁advance	-7072
▁appearance	-7073
少年	-7074
▁物理	-7075
▁随后	-7076
▁France	-7077
▁providing	-7078
▁事宜	-7079
▁外面	-7080
▁libr	-7081
▁余	-7082
▁译	-7083
▁辅	-7084
estival	-7085
▁商店	-7086
▁honest	-7087
▁conflic	-7088
▁估计	-7089
▁比例	-7090
▁diagn	-7091
ato	-7092
▁finish	-7093
▁ourselves	-7094
▁怪	-7095
aped	-7096
▁Administration	-7097
▁规模	-7098
▁Ter	-7099
pan	-7100
▁Will	-7101
▁腐	-7102
个月	-7103
▁转换	-7104
aints	-7105
▁yellow	-7106
▁dim	-7107
▁富有	-7108
▁Africa	-7109
▁彻	-7110
▁敌人	-7111
▁物业	-7112
▁观众	-7113
▁证实	-7114
uality	-7115
▁足球	-7116
arian	-7117
▁忧	-7118
▁革	-7119
ein	-7120
▁atmosp	-7121
▁vehicles	-7122
▁陆	-7123
▁policies	-7124
wor	-7125
▁倾向	-7126
▁一步	-7127
gment	-7128
▁2010	-7129
▁品牌	-7130
▁教师	-7131
▁agent	-7132
▁twenty	-7133
ham	-7134
▁左右	-7135
▁bless	-7136
▁released	-7137
▁教堂	-7138
▁青少年	-7139
▁坦	-7140
▁协调	-7141
▁实践	-7142
apers	-7143
▁determined	-7144
▁38	-7145
▁书面	-7146
▁到底	-7147
▁Act	-7148
▁habit	-7149
▁Education	-7150
▁香港特	-7151
▁刘	-7152
▁老人	-7153
▁acid	-7154
▁护理	-7155
▁holding	-7156
▁粮	-7157
▁会计	-7158
▁阻止	-7159
▁obtain	-7160
▁恩	-7161
oman	-7162
▁dial	-7163
▁pure	-7164
▁becoming	-7165
▁谈话	-7166
▁offering	-7167
▁上周	-7168
▁刚刚	-7169
▁含有	-7170
▁凭	-7171
细胞	-7172
▁sides	-7173
▁Survey	-7174
▁Saf	-7175
▁stim	-7176
▁个案	-7177
▁关心	-7178
▁搞	-7179
▁Mc	-7180
▁工艺	-7181
▁Fed	-7182
▁Washing	-7183
▁刀	-7184
eal	-7185
▁严格	-7186
▁delivery	-7187
oved	-7188
▁Commer	-7189
▁micro	-7190
▁广播	-7191
▁actions	-7192
▁陷入	-7193
▁dust	-7194
▁ideal	-7195
▁Section	-7196
▁拆	-7197
▁境	-7198
▁释放	-7199
otic	-7200
▁龙	-7201
obe	-7202
▁夫人	-7203
ooth	-7204
▁筹	-7205
动物	-7206
▁判断	-7207
▁rot	-7208
▁thoughts	-7209
▁拨	-7210
uct	-7211
ading	-7212
▁forth	-7213
▁夹	-7214
▁扩大	-7215
▁assign	-7216
▁realize	-7217
▁efficient	-7218
▁分配	-7219
▁获取	-7220
▁medicine	-7221
wood	-7222
▁watching	-7223
贡献	-7224
▁司法	-7225
▁located	-7226
▁旁边	-7227
anged	-7228
▁tests	-7229
▁煤	-7230
▁技巧	-7231
▁紧急	-7232
▁rid	-7233
▁judge	-7234
▁蛋白	-7235
▁hurt	-7236
▁offers	-7237
▁PC	-7238
▁Bill	-7239
▁赚	-7240
time	-7241
▁musc	-7242
▁ec	-7243
▁有时候	-7244
▁却是	-7245
▁效率	-7246
▁characteristics	-7247
表明	-7248
▁路上	-7249
▁数据库	-7250
ounds	-7251
姑娘	-7252
娱乐	-7253
▁听见	-7254
▁heaven	-7255
▁说法	-7256
▁arrived	-7257
▁Washington	-7258
▁不少	-7259
▁bread	-7260
▁internal	-7261
▁interests	-7262
▁刑	-7263
▁纪录	-7264
▁carbon	-7265
▁予	-7266
▁扔	-7267
▁ing	-7268
▁flex	-7269
▁lie	-7270
▁wouldn	-7271
▁紫	-7272
▁requires	-7273
▁pollution	-7274
▁bought	-7275
▁background	-7276
▁39	-7277
▁疡	-7278
vis	-7279
▁River	-7280
▁碳	-7281
▁指示	-7282
▁imposs	-7283
..	-7284
▁那天	-7285
▁gentle	-7286
▁hall	-7287
▁签署	-7288
▁mere	-7289
▁smart	-7290
▁manufacture	-7291
▁迟	-7292
▁experts	-7293
▁板	-7294
▁娱乐	-7295
▁chick	-7296
▁Association	-7297
▁天然	-7298
▁Sen	-7299
▁tears	-7300
▁specified	-7301
▁藏	-7302
▁联邦	-7303
▁规例	-7304
▁glad	-7305
▁Executive	-7306
▁赫	-7307
rast	-7308
▁shot	-7309
▁验	-7310
兴趣	-7311
isc	-7312
▁改进	-7313
▁相似	-7314
ifying	-7315
▁保安	-7316
▁decre	-7317
▁German	-7318
▁compos	-7319
▁系	-7320
▁做好	-7321
▁庆祝	-7322
ette	-7323
▁chapter	-7324
▁尺	-7325
▁冲突	-7326
▁排放	-7327
▁300	-7328
▁prison	-7329
▁rising	-7330
uls	-7331
▁加上	-7332
isher	-7333
▁employment	-7334
▁Russia	-7335
▁链	-7336
▁Jud	-7337
▁distribution	-7338
▁气体	-7339
under	-7340
▁gain	-7341
ressed	-7342
▁blind	-7343
▁西班	-7344
▁od	-7345
▁多种	-7346
▁warn	-7347
▁weap	-7348
▁guide	-7349
▁answered	-7350
▁currently	-7351
▁via	-7352
▁西班牙	-7353
▁沃	-7354
▁怎么样	-7355
▁evil	-7356
▁刊	-7357
orage	-7358
▁departments	-7359
▁Michael	-7360
▁浪费	-7361
akers	-7362
▁抢	-7363
▁图片	-7364
▁情感	-7365
▁univers	-7366
▁operating	-7367
▁谨	-7368
▁不够	-7369
▁club	-7370
tering	-7371
▁法例	-7372
ET	-7373
▁轻松	-7374
do	-7375
▁plane	-7376
ari	-7377
▁损害	-7378
▁practical	-7379
▁斗	-7380
▁幸运	-7381
▁污水	-7382
craft	-7383
▁param	-7384
▁公民	-7385
▁有用	-7386
ports	-7387
▁categ	-7388
▁识	-7389
ino	-7390
▁首席	-7391
▁Games	-7392
▁friendly	-7393
不到	-7394
▁差异	-7395
▁valu	-7396
▁亲爱	-7397
▁funds	-7398
▁greatest	-7399
▁拟	-7400
▁不论	-7401
▁sav	-7402
▁contains	-7403
▁familiar	-7404
▁Party	-7405
▁如下	-7406
▁端	-7407
▁作者	-7408
▁诊断	-7409
▁MP	-7410
agers	-7411
▁彩	-7412
▁播	-7413
▁返回	-7414
▁elements	-7415
▁入境	-7416
orter	-7417
▁参数	-7418
▁现金	-7419
▁maintenance	-7420
▁所谓	-7421
▁熟悉	-7422
▁flood	-7423
▁replace	-7424
▁stopped	-7425
▁finished	-7426
▁Commun	-7427
▁principle	-7428
▁Dem	-7429
▁国会	-7430
▁offices	-7431
▁他会	-7432
▁described	-7433
▁揭	-7434
▁潜在	-7435
SD	-7436
▁函	-7437
ava	-7438
ules	-7439
▁smoke	-7440
▁厚	-7441
▁敬	-7442
▁poly	-7443
▁盘	-7444
▁袭击	-7445
▁nations	-7446
▁巡	-7447
▁小孩	-7448
▁模拟	-7449
▁keeping	-7450
▁Mid	-7451
▁larger	-7452
▁体验	-7453
▁重复	-7454
uous	-7455
▁coast	-7456
▁楼宇	-7457
▁beat	-7458
▁unable	-7459
▁事故	-7460
▁severe	-7461
▁changing	-7462
▁household	-7463
▁台湾	-7464
▁武器	-7465
▁障碍	-7466
▁Est	-7467
▁server	-7468
▁TH	-7469
▁metal	-7470
▁flower	-7471
▁幻	-7472
▁重点	-7473
standing	-7474
▁韩国	-7475
▁discovered	-7476
▁诉	-7477
roc	-7478
▁imagine	-7479
▁置	-7480
▁外交	-7481
▁White	-7482
atically	-7483
▁Satur	-7484
▁最初	-7485
▁颁	-7486
▁OF	-7487
▁预期	-7488
▁reply	-7489
▁plastic	-7490
▁subs	-7491
▁handle	-7492
▁四月	-7493
▁搜索	-7494
▁监督	-7495
▁谈判	-7496
iture	-7497
▁furn	-7498
▁fault	-7499
▁proceed	-7500
▁edge	-7501
▁shoes	-7502
▁扣	-7503
▁农民	-7504
▁Land	-7505
▁仔细	-7506
▁带有	-7507
▁撞	-7508
▁共和	-7509
▁多数	-7510
▁pursu	-7511
▁Taiwan	-7512
▁装饰	-7513
▁转移	-7514
▁信任	-7515
▁vision	-7516
▁efficiency	-7517
▁细节	-7518
▁records	-7519
▁carefully	-7520
▁assessment	-7521
▁抱怨	-7522
irst	-7523
▁铁路	-7524
▁一段时间	-7525
▁抬	-7526
▁Red	-7527
▁liber	-7528
▁非法	-7529
▁images	-7530
▁vessel	-7531
▁医学	-7532
▁屏	-7533
▁弟	-7534
▁消除	-7535
▁tail	-7536
▁太太	-7537
▁智能	-7538
▁scr	-7539
▁independent	-7540
▁交换	-7541
▁进步	-7542
oma	-7543
▁尽量	-7544
rier	-7545
▁fed	-7546
▁Project	-7547
▁一辆	-7548
ogue	-7549
ords	-7550
▁widely	-7551
▁振	-7552
▁所在	-7553
▁福利	-7554
▁Legislative	-7555
▁~	-7556
▁core	-7557
▁stre	-7558
▁provision	-7559
▁Tw	-7560
▁chann	-7561
▁extremely	-7562
▁shad	-7563
▁award	-7564
lex	-7565
▁胜利	-7566
▁enemy	-7567
▁酸	-7568
▁掌握	-7569
▁潮	-7570
▁Mem	-7571
▁equal	-7572
▁建筑物	-7573
▁扩展	-7574
▁可能性	-7575
▁residents	-7576
邮件	-7577
hedu	-7578
▁ast	-7579
▁Work	-7580
OS	-7581
▁cards	-7582
▁读者	-7583
bing	-7584
▁visitors	-7585
▁email	-7586
▁height	-7587
ms	-7588
▁compar	-7589
▁architect	-7590
▁challenge	-7591
▁定期	-7592
▁早晨	-7593
▁童	-7594
▁担任	-7595
▁】	-7596
▁05	-7597
▁Cr	-7598
▁优秀	-7599
▁Jer	-7600
ented	-7601
▁Safety	-7602
▁堆	-7603
▁增强	-7604
hedule	-7605
▁tired	-7606
▁技能	-7607
▁园	-7608
▁spoke	-7609
▁presence	-7610
▁哲	-7611
▁resol	-7612
▁疗	-7613
▁分区	-7614
▁storm	-7615
▁suitable	-7616
盛顿	-7617
▁睡眠	-7618
▁sett	-7619
▁含量	-7620
▁shopping	-7621
▁弥	-7622
世纪	-7623
rel	-7624
▁照顾	-7625
▁华盛顿	-7626
uration	-7627
▁fields	-7628
▁forever	-7629
▁螺	-7630
▁alc	-7631
▁People	-7632
▁灭	-7633
▁赤	-7634
▁一部	-7635
▁shock	-7636
▁想起	-7637
▁球员	-7638
▁Asian	-7639
人民	-7640
▁主管	-7641
▁成熟	-7642
▁博物馆	-7643
▁Miss	-7644
▁猎	-7645
▁癌	-7646
▁显著	-7647
▁啦	-7648
▁种族	-7649
▁stars	-7650
▁各个	-7651
more	-7652
▁mur	-7653
▁Prov	-7654
▁silver	-7655
斯特	-7656
机构	-7657
▁guy	-7658
▁AP	-7659
▁俱	-7660
▁一面	-7661
▁participants	-7662
▁游泳	-7663
ander	-7664
▁easier	-7665
▁restaurant	-7666
▁穷	-7667
▁unp	-7668
▁第二天	-7669
▁结果表明	-7670
▁properties	-7671
▁关闭	-7672
▁农业	-7673
izes	-7674
▁x	-7675
▁泡	-7676
ils	-7677
▁无线	-7678
▁象征	-7679
▁discussion	-7680
▁暴力	-7681
orial	-7682
▁finding	-7683
▁Hu	-7684
▁victim	-7685
▁锻	-7686
iam	-7687
▁检验	-7688
▁restrict	-7689
▁Tsu	-7690
▁fellow	-7691
▁players	-7692
▁雕	-7693
poses	-7694
▁伙伴	-7695
▁伊朗	-7696
▁experiment	-7697
rete	-7698
▁curren	-7699
▁37	-7700
▁Dan	-7701
▁band	-7702
▁scene	-7703
▁circumstances	-7704
▁eventually	-7705
een	-7706
▁天文	-7707
respond	-7708
ruption	-7709
▁smooth	-7710
ployment	-7711
▁Rel	-7712
▁致力	-7713
▁expensive	-7714
▁胶	-7715
▁脸上	-7716
▁谈论	-7717
▁absor	-7718
▁挖	-7719
pir	-7720
▁统一	-7721
eness	-7722
▁guarant	-7723
▁summ	-7724
▁teachers	-7725
▁impossible	-7726
年人	-7727
▁budget	-7728
▁成绩	-7729
▁coal	-7730
▁携	-7731
▁上午	-7732
▁名单	-7733
▁大楼	-7734
▁开支	-7735
▁Organ	-7736
▁profit	-7737
▁三月	-7738
▁kinds	-7739
▁面包	-7740
▁tra	-7741
▁taste	-7742
▁separate	-7743
▁fool	-7744
▁upper	-7745
▁雄	-7746
tery	-7747
arrow	-7748
▁Wind	-7749
▁Building	-7750
▁church	-7751
▁accepted	-7752
▁34	-7753
▁besides	-7754
▁wet	-7755
▁Ann	-7756
▁Mor	-7757
▁centre	-7758
▁possess	-7759
▁心灵	-7760
▁database	-7761
大利亚	-7762
▁蒸	-7763
▁抓住	-7764
house	-7765
▁excess	-7766
▁灌	-7767
▁汤姆	-7768
▁悬	-7769
osure	-7770
▁village	-7771
▁corporate	-7772
30	-7773
olf	-7774
▁利润	-7775
acters	-7776
▁false	-7777
▁pieces	-7778
▁五月	-7779
▁海岸	-7780
▁arriv	-7781
▁Professor	-7782
▁encourage	-7783
▁tall	-7784
▁miles	-7785
▁meanwhile	-7786
yal	-7787
▁Instit	-7788
▁吸烟	-7789
▁kid	-7790
▁studied	-7791
AP	-7792
▁淡	-7793
for	-7794
riend	-7795
▁factory	-7796
可能	-7797
▁财产	-7798
▁Union	-7799
▁goals	-7800
▁scientific	-7801
▁Ste	-7802
▁禽	-7803
yr	-7804
▁Board	-7805
▁Germany	-7806
▁HKS	-7807
▁珠	-7808
▁身份证	-7809
▁Officer	-7810
▁脂肪	-7811
▁journey	-7812
ae	-7813
尔斯	-7814
▁舒适	-7815
▁随时	-7816
▁pra	-7817
▁procedures	-7818
▁旨	-7819
▁盐	-7820
▁边缘	-7821
hered	-7822
▁nine	-7823
▁一会儿	-7824
▁formed	-7825
▁期待	-7826
miss	-7827
▁wonderful	-7828
▁垂	-7829
rees	-7830
▁owner	-7831
▁宇宙	-7832
▁统治	-7833
ogle	-7834
▁initial	-7835
▁obtained	-7836
▁渐	-7837
▁彻底	-7838
▁澳大利亚	-7839
▁ceremony	-7840
▁clinical	-7841
▁欲	-7842
如此	-7843
idelines	-7844
acle	-7845
▁signal	-7846
▁enterprise	-7847
▁平台	-7848
▁worse	-7849
▁therap	-7850
▁内心	-7851
▁接下来	-7852
▁absolute	-7853
▁人群	-7854
▁有意	-7855
aked	-7856
▁hat	-7857
▁仆	-7858
行政	-7859
▁correspond	-7860
▁hom	-7861
▁factor	-7862
▁philos	-7863
▁Security	-7864
▁identity	-7865
▁拼	-7866
▁账	-7867
▁穿过	-7868
▁layer	-7869
asty	-7870
▁improvement	-7871
▁唐	-7872
▁钟	-7873
国家	-7874
▁actual	-7875
方案	-7876
▁football	-7877
ps	-7878
▁older	-7879
▁holiday	-7880
rove	-7881
▁construct	-7882
▁受伤	-7883
▁phen	-7884
▁LC	-7885
▁得以	-7886
▁放松	-7887
▁One	-7888
▁可行	-7889
▁存储	-7890
▁calm	-7891
▁Inter	-7892
▁angry	-7893
▁仪式	-7894
▁丧	-7895
▁对待	-7896
▁facil	-7897
▁纺	-7898
▁有个	-7899
lets	-7900
▁onto	-7901
▁Paul	-7902
▁lots	-7903
▁excellent	-7904
▁心中	-7905
▁phase	-7906
▁PR	-7907
▁立刻	-7908
iger	-7909
▁Research	-7910
▁consumption	-7911
▁Lic	-7912
▁sharp	-7913
▁85	-7914
▁发明	-7915
▁renew	-7916
▁This	-7917
▁laun	-7918
▁Circular	-7919
▁suit	-7920
▁厌	-7921
▁码	-7922
▁尊重	-7923
▁战斗	-7924
▁分类	-7925
▁性质	-7926
▁initi	-7927
▁launch	-7928
▁selling	-7929
att	-7930
▁il	-7931
▁bath	-7932
▁环境保护	-7933
▁胆	-7934
▁敏感	-7935
▁更大	-7936
▁signs	-7937
▁occasion	-7938
then	-7939
▁hole	-7940
▁寒	-7941
欢迎	-7942
ensity	-7943
▁dance	-7944
▁remove	-7945
▁advanced	-7946
▁仿佛	-7947
▁Long	-7948
▁金钱	-7949
ingly	-7950
equ	-7951
ingu	-7952
ohol	-7953
▁wid	-7954
▁teach	-7955
▁应对	-7956
乐部	-7957
▁罗马	-7958
▁Net	-7959
技术	-7960
▁最低	-7961
▁frag	-7962
▁entered	-7963
▁till	-7964
▁稀	-7965
▁到来	-7966
▁愤怒	-7967
▁Mary	-7968
▁dollar	-7969
▁player	-7970
▁consumers	-7971
▁互相	-7972
▁俱乐部	-7973
▁borrow	-7974
▁approval	-7975
IM	-7976
▁进展	-7977
▁terror	-7978
▁Port	-7979
▁experim	-7980
▁licence	-7981
▁爆炸	-7982
▁stret	-7983
ulating	-7984
▁defend	-7985
▁multiple	-7986
▁pleasure	-7987
ror	-7988
enses	-7989
▁atmosphere	-7990
gn	-7991
▁女子	-7992
▁aware	-7993
▁teeth	-7994
▁grew	-7995
▁EU	-7996
▁疼	-7997
▁cab	-7998
▁platform	-7999
▁drugs	-8000
▁六月	-8001
▁Wed	-8002
▁第十	-8003
works	-8004
▁cooperation	-8005
问题	-8006
▁accompl	-8007
▁conversation	-8008
▁hyp	-8009
▁emph	-8010
▁lies	-8011
▁guess	-8012
outhern	-8013
▁asking	-8014
▁purchase	-8015
▁哪些	-8016
▁走进	-8017
▁journal	-8018
▁肺	-8019
pet	-8020
▁援助	-8021
▁feature	-8022
▁overseas	-8023
▁挣	-8024
▁各国	-8025
▁trib	-8026
▁某人	-8027
▁diseases	-8028
▁配置	-8029
▁High	-8030
▁characters	-8031
▁祈	-8032
▁形状	-8033
▁游客	-8034
▁notes	-8035
▁挤	-8036
▁因而	-8037
▁comment	-8038
▁属性	-8039
▁san	-8040
▁instance	-8041
▁自信	-8042
ache	-8043
inated	-8044
▁conducted	-8045
▁examination	-8046
▁cloud	-8047
▁plate	-8048
▁mental	-8049
▁弱	-8050
▁Don	-8051
▁suggested	-8052
▁铺	-8053
off	-8054
▁cart	-8055
▁breath	-8056
td	-8057
▁票	-8058
▁肩	-8059
ION	-8060
▁Tin	-8061
idden	-8062
▁铜	-8063
▁开展	-8064
▁阿拉	-8065
▁杜	-8066
▁新鲜	-8067
▁Guang	-8068
▁objects	-8069
▁Congress	-8070
▁minister	-8071
▁扭	-8072
▁献	-8073
ara	-8074
▁专门	-8075
▁讲话	-8076
▁But	-8077
▁smell	-8078
▁client	-8079
▁exceed	-8080
▁暂时	-8081
▁类别	-8082
▁emergency	-8083
▁复制	-8084
▁研讨	-8085
▁Google	-8086
处理	-8087
▁cas	-8088
▁photo	-8089
▁循环	-8090
▁alt	-8091
▁hero	-8092
▁trend	-8093
▁blow	-8094
▁似的	-8095
place	-8096
▁本人	-8097
▁Chair	-8098
▁replied	-8099
▁奉	-8100
▁Acc	-8101
▁careful	-8102
▁conference	-8103
▁prospect	-8104
▁灾难	-8105
▁法官	-8106
▁assets	-8107
▁烦	-8108
▁听说	-8109
▁First	-8110
▁adopt	-8111
▁forced	-8112
▁炸	-8113
▁Thurs	-8114
▁职员	-8115
▁贡献	-8116
▁ble	-8117
▁Fore	-8118
▁督察	-8119
▁Mart	-8120
▁individuals	-8121
▁wearing	-8122
▁沟通	-8123
▁CD	-8124
▁row	-8125
ocation	-8126
▁电讯	-8127
▁perman	-8128
▁拜	-8129
▁业主	-8130
▁旅客	-8131
▁empty	-8132
资源	-8133
▁sir	-8134
▁crime	-8135
▁wheel	-8136
为止	-8137
▁mix	-8138
▁lady	-8139
活动	-8140
▁付出	-8141
▁smoking	-8142
▁Sing	-8143
▁企	-8144
gent	-8145
▁aid	-8146
▁Tues	-8147
▁smaller	-8148
▁尾	-8149
ixt	-8150
▁不太	-8151
▁sets	-8152
TR	-8153
▁五年	-8154
iary	-8155
▁detect	-8156
▁authority	-8157
rastructure	-8158
▁品质	-8159
▁回忆	-8160
▁Down	-8161
▁Saturday	-8162
▁Ne	-8163
water	-8164
▁army	-8165
▁profession	-8166
▁bodies	-8167
omy	-8168
▁取消	-8169
▁失望	-8170
▁等等	-8171
▁那位	-8172
▁Tele	-8173
▁highest	-8174
venue	-8175
▁fab	-8176
▁pock	-8177
▁轨	-8178
▁识别	-8179
▁estate	-8180
▁醒	-8181
▁一群	-8182
▁Stand	-8183
▁guard	-8184
▁turning	-8185
▁未能	-8186
▁maximum	-8187
▁锁	-8188
▁标签	-8189
▁leaf	-8190
▁crack	-8191
生物	-8192
▁争论	-8193
▁Dec	-8194
▁#	-8195
▁花费	-8196
▁bask	-8197
▁亿美元	-8198
▁驻	-8199
gel	-8200
▁面积	-8201
▁Ser	-8202
▁amaz	-8203
▁Application	-8204
▁大概	-8205
▁sympt	-8206
▁twice	-8207
▁officer	-8208
▁途径	-8209
▁件	-8210
▁生日	-8211
▁Canada	-8212
▁east	-8213
▁push	-8214
iminal	-8215
yg	-8216
▁	-8217
▁监察	-8218
▁manage	-8219
▁recovery	-8220
▁弯	-8221
▁proud	-8222
▁rough	-8223
▁09	-8224
▁周末	-8225
▁settle	-8226
▁anx	-8227
▁showing	-8228
行政区	-8229
▁unw	-8230
▁Social	-8231
▁腿	-8232
▁majority	-8233
没有	-8234
▁compens	-8235
▁agency	-8236
▁nav	-8237
▁alcohol	-8238
▁_	-8239
▁beg	-8240
▁sam	-8241
iations	-8242
▁dreams	-8243
▁witness	-8244
▁consumer	-8245
▁Out	-8246
▁legisl	-8247
▁map	-8248
▁有没有	-8249
▁slip	-8250
▁Thursday	-8251
zen	-8252
▁现时	-8253
▁神秘	-8254
▁illeg	-8255
▁attitude	-8256
▁七年	-8257
▁sch	-8258
▁promise	-8259
▁'	-8260
▁rom	-8261
▁camer	-8262
▁sounds	-8263
▁purposes	-8264
▁古老	-8265
▁档案	-8266
分之一	-8267
▁west	-8268
▁technique	-8269
别行政区	-8270
▁stories	-8271
▁improved	-8272
▁清晰	-8273
▁纤维	-8274
ula	-8275
▁可爱	-8276
▁alg	-8277
▁Custom	-8278
▁planet	-8279
▁served	-8280
▁乙	-8281
▁始终	-8282
bour	-8283
▁instruct	-8284
▁scen	-8285
ray	-8286
▁Assist	-8287
esh	-8288
▁同学	-8289
▁少数	-8290
▁sustain	-8291
▁配合	-8292
▁零售	-8293
▁候选	-8294
▁姑娘	-8295
▁calling	-8296
▁storage	-8297
plement	-8298
▁western	-8299
▁中有	-8300
▁carrying	-8301
▁assistance	-8302
▁IP	-8303
▁一间	-8304
▁Home	-8305
▁haven	-8306
▁大大	-8307
▁移民	-8308
comm	-8309
know	-8310
▁还会	-8311
▁今晚	-8312
▁吸收	-8313
▁option	-8314
▁officers	-8315
▁elder	-8316
▁doctors	-8317
▁wedding	-8318
▁satisfact	-8319
▁relatively	-8320
▁司机	-8321
▁numer	-8322
▁democr	-8323
▁humans	-8324
▁户	-8325
▁Tuesday	-8326
▁Australia	-8327
▁躲	-8328
▁一把	-8329
▁十年	-8330
▁合法	-8331
▁format	-8332
▁度过	-8333
▁fulf	-8334
▁reduced	-8335
▁框	-8336
▁Jos	-8337
▁Pan	-8338
▁column	-8339
▁ordinary	-8340
▁师	-8341
ugh	-8342
▁累	-8343
▁分离	-8344
ront	-8345
ker	-8346
▁作家	-8347
▁具备	-8348
▁可用	-8349
▁夏天	-8350
▁心情	-8351
iring	-8352
▁gather	-8353
▁comprehens	-8354
▁决策	-8355
▁signed	-8356
▁既然	-8357
▁碎	-8358
▁症状	-8359
▁滚	-8360
调查	-8361
▁噪音	-8362
▁肌肉	-8363
▁通用	-8364
apping	-8365
▁passion	-8366
▁external	-8367
▁millions	-8368
▁启动	-8369
II	-8370
▁alle	-8371
▁truly	-8372
▁driver	-8373
struction	-8374
▁即便	-8375
▁Insp	-8376
▁hearing	-8377
▁certificate	-8378
辐射	-8379
▁案件	-8380
▁生气	-8381
▁gate	-8382
▁mood	-8383
▁宪	-8384
▁AN	-8385
▁lad	-8386
▁happens	-8387
▁citizens	-8388
▁Programme	-8389
hu	-8390
▁瑞士	-8391
▁kil	-8392
actions	-8393
▁George	-8394
▁superv	-8395
cession	-8396
▁adopted	-8397
局长	-8398
bre	-8399
▁九月	-8400
▁劳工	-8401
▁每周	-8402
▁这座	-8403
itely	-8404
▁excl	-8405
ologies	-8406
▁output	-8407
▁文学	-8408
▁欣赏	-8409
▁Pac	-8410
▁tro	-8411
▁自行车	-8412
▁燃料	-8413
▁披	-8414
▁猛	-8415
▁全文	-8416
▁典型	-8417
▁石头	-8418
▁newspaper	-8419
▁违反	-8420
▁telling	-8421
lor	-8422
▁files	-8423
▁48	-8424
▁中华	-8425
▁Ant	-8426
itors	-8427
▁grown	-8428
▁工资	-8429
▁查看	-8430
▁锻炼	-8431
产品	-8432
aly	-8433
▁再也	-8434
▁所属	-8435
▁净	-8436
rep	-8437
▁声称	-8438
▁nom	-8439
▁1998	-8440
▁delay	-8441
▁follows	-8442
▁letters	-8443
▁仆人	-8444
▁研讨会	-8445
▁expert	-8446
▁回报	-8447
▁乃	-8448
▁佩	-8449
▁Lo	-8450
▁文字	-8451
erves	-8452
▁Wednes	-8453
iques	-8454
▁stability	-8455
规模	-8456
▁Art	-8457
lling	-8458
▁programs	-8459
▁pictures	-8460
▁深入	-8461
▁treated	-8462
▁lunch	-8463
▁敲	-8464
▁发动	-8465
▁sole	-8466
▁士兵	-8467
▁指挥	-8468
▁switch	-8469
▁溶	-8470
▁玉	-8471
▁tor	-8472
▁不仅仅	-8473
▁aren	-8474
▁vast	-8475
▁creating	-8476
▁components	-8477
▁reasonable	-8478
▁reject	-8479
▁昂	-8480
▁不愿	-8481
▁巴黎	-8482
▁Bay	-8483
▁tiny	-8484
▁minor	-8485
▁recon	-8486
▁Iran	-8487
▁figures	-8488
▁package	-8489
▁apparent	-8490
▁杯	-8491
▁相应	-8492
fall	-8493
▁turns	-8494
▁08	-8495
▁discipl	-8496
▁Hot	-8497
▁wire	-8498
▁motion	-8499
nam	-8500
▁革命	-8501
▁entry	-8502
▁magaz	-8503
▁decades	-8504
▁critical	-8505
PS	-8506
▁rice	-8507
▁Paris	-8508
▁Invest	-8509
▁analyz	-8510
▁及时	-8511
▁生成	-8512
▁编辑	-8513
rawn	-8514
▁territ	-8515
▁长时间	-8516
▁ocean	-8517
▁marketing	-8518
▁字符	-8519
▁色彩	-8520
▁Great	-8521
▁一九九	-8522
▁sufficient	-8523
▁流感	-8524
▁Exp	-8525
▁prepare	-8526
▁久	-8527
▁可怜	-8528
▁面试	-8529
▁夺	-8530
工程	-8531
▁Sam	-8532
agues	-8533
▁shoot	-8534
▁medium	-8535
unately	-8536
▁invited	-8537
▁实验室	-8538
▁Harry	-8539
ey	-8540
▁airport	-8541
▁messages	-8542
▁everybody	-8543
▁渗	-8544
▁Let	-8545
▁assum	-8546
▁error	-8547
▁甘	-8548
▁递交	-8549
▁colour	-8550
▁衬	-8551
▁opp	-8552
▁suggests	-8553
▁蓝色	-8554
▁Civil	-8555
▁audience	-8556
变化	-8557
asm	-8558
▁高速	-8559
▁夸	-8560
逻辑	-8561
▁假期	-8562
▁belief	-8563
▁斜	-8564
▁蔬	-8565
▁pil	-8566
▁boys	-8567
▁Industry	-8568
▁埋	-8569
▁足以	-8570
ishment	-8571
▁写作	-8572
▁学术	-8573
▁空中	-8574
met	-8575
▁兴奋	-8576
▁步骤	-8577
oked	-8578
▁broke	-8579
▁一本	-8580
▁质素	-8581
▁马克	-8582
▁waters	-8583
▁Science	-8584
▁精力	-8585
▁organizations	-8586
▁刻	-8587
▁厂	-8588
▁胃	-8589
▁一对	-8590
▁mistake	-8591
▁imper	-8592
▁inspection	-8593
▁sacr	-8594
▁undert	-8595
▁phenomen	-8596
▁谋	-8597
▁发送	-8598
▁沿着	-8599
▁规范	-8600
▁Good	-8601
▁courage	-8602
▁delight	-8603
▁identify	-8604
咨询	-8605
▁友好	-8606
icked	-8607
▁染	-8608
▁手中	-8609
▁Ben	-8610
▁Wang	-8611
▁Pacific	-8612
▁desk	-8613
▁talks	-8614
▁violence	-8615
▁拍摄	-8616
▁Adobe	-8617
▁residential	-8618
▁罚	-8619
▁salt	-8620
isters	-8621
▁assemb	-8622
▁旨在	-8623
▁难道	-8624
▁config	-8625
▁retail	-8626
rible	-8627
▁honor	-8628
▁transform	-8629
▁赌	-8630
▁narrow	-8631
▁灵活	-8632
zhou	-8633
▁Mad	-8634
▁一颗	-8635
▁喜爱	-8636
▁emphas	-8637
▁赐	-8638
▁有机	-8639
▁议会	-8640
▁亮	-8641
▁戒	-8642
危机	-8643
orate	-8644
▁解决方案	-8645
▁index	-8646
▁marry	-8647
▁risks	-8648
ecution	-8649
▁falling	-8650
▁Wednesday	-8651
▁resistance	-8652
▁侧	-8653
▁中学	-8654
▁explore	-8655
▁session	-8656
▁罢	-8657
▁付款	-8658
▁Rent	-8659
▁Wong	-8660
▁孙	-8661
▁从前	-8662
▁塑料	-8663
▁邮政局	-8664
▁认真	-8665
osen	-8666
▁fix	-8667
▁laid	-8668
▁tonight	-8669
▁comfortable	-8670
▁尸	-8671
▁街道	-8672
▁agric	-8673
▁trading	-8674
▁对手	-8675
▁数学	-8676
▁tun	-8677
▁birthday	-8678
▁SO	-8679
▁徒	-8680
▁上诉	-8681
▁命运	-8682
▁致电	-8683
▁DNA	-8684
▁XML	-8685
▁尔	-8686
▁旋转	-8687
▁玛丽	-8688
▁纺织	-8689
▁遭到	-8690
▁houses	-8691
▁mentioned	-8692
▁只会	-8693
▁平静	-8694
▁遭受	-8695
▁earthqu	-8696
▁此时	-8697
▁联盟	-8698
rian	-8699
isure	-8700
▁秋	-8701
udd	-8702
▁一阵	-8703
▁客人	-8704
▁complic	-8705
▁当作	-8706
▁foods	-8707
▁服装	-8708
▁forgot	-8709
教育	-8710
▁为此	-8711
▁sugar	-8712
▁tender	-8713
▁visual	-8714
▁closely	-8715
▁采访	-8716
▁履	-8717
▁腹	-8718
▁创作	-8719
▁194	-8720
night	-8721
▁pool	-8722
▁remained	-8723
▁discussed	-8724
▁传递	-8725
▁爆发	-8726
▁mode	-8727
▁ther	-8728
▁depth	-8729
▁root	-8730
erning	-8731
▁大众	-8732
▁lit	-8733
▁revolution	-8734
▁抑制	-8735
umber	-8736
uries	-8737
▁friendship	-8738
bur	-8739
▁drinking	-8740
▁棒	-8741
▁迁	-8742
▁–	-8743
▁掩	-8744
▁delic	-8745
▁models	-8746
▁擦	-8747
▁影片	-8748
▁睡觉	-8749
▁That	-8750
▁extract	-8751
▁currency	-8752
▁假设	-8753
▁疯狂	-8754
▁细菌	-8755
▁姓	-8756
▁绘	-8757
▁42	-8758
▁留在	-8759
▁ped	-8760
▁breast	-8761
▁sources	-8762
▁以至	-8763
▁和谐	-8764
▁手指	-8765
▁deeply	-8766
▁烤	-8767
▁婚礼	-8768
active	-8769
oned	-8770
▁brown	-8771
▁吃饭	-8772
▁延长	-8773
ught	-8774
▁bid	-8775
▁classes	-8776
▁gradually	-8777
▁遥	-8778
rance	-8779
▁Economic	-8780
▁reaction	-8781
▁supposed	-8782
▁accordance	-8783
工作	-8784
sts	-8785
▁ju	-8786
▁能否	-8787
▁appointment	-8788
▁裂	-8789
▁44	-8790
▁算法	-8791
▁叫做	-8792
bles	-8793
usive	-8794
▁tough	-8795
▁adding	-8796
▁execut	-8797
▁photos	-8798
▁selected	-8799
▁成分	-8800
重要	-8801
▁接收	-8802
▁第五	-8803
▁Works	-8804
▁anger	-8805
▁Indian	-8806
▁combination	-8807
▁视频	-8808
▁sport	-8809
▁Minister	-8810
▁桥	-8811
▁清单	-8812
▁Mus	-8813
▁七月	-8814
▁惊讶	-8815
▁programmes	-8816
卫生	-8817
▁探索	-8818
rip	-8819
▁好好	-8820
itchen	-8821
▁proof	-8822
▁slightly	-8823
osc	-8824
▁犹太	-8825
▁attached	-8826
▁launched	-8827
▁兰	-8828
合物	-8829
▁一支	-8830
▁intr	-8831
▁conscious	-8832
▁decisions	-8833
orthern	-8834
▁consid	-8835
▁届	-8836
▁mad	-8837
运动	-8838
▁种类	-8839
▁蔬菜	-8840
▁血液	-8841
▁prove	-8842
▁formal	-8843
▁surprise	-8844
▁strengthen	-8845
▁十二月	-8846
▁志	-8847
环境	-8848
▁二月	-8849
▁businesses	-8850
▁证券	-8851
▁Ltd	-8852
▁wise	-8853
▁academic	-8854
▁般的	-8855
▁walls	-8856
▁剂	-8857
▁各项	-8858
▁咨询	-8859
ums	-8860
▁乐观	-8861
▁停车	-8862
▁文本	-8863
▁观看	-8864
odes	-8865
ushing	-8866
▁depends	-8867
▁人体	-8868
ifts	-8869
▁attrib	-8870
▁失业	-8871
king	-8872
▁ath	-8873
▁一个月	-8874
▁orders	-8875
▁applicant	-8876
▁scar	-8877
▁regul	-8878
▁governments	-8879
orous	-8880
▁motiv	-8881
▁缺陷	-8882
▁债券	-8883
▁指数	-8884
▁玩具	-8885
▁abroad	-8886
▁conclud	-8887
▁tradition	-8888
▁sem	-8889
▁Java	-8890
▁worst	-8891
▁contrast	-8892
▁哪儿	-8893
asks	-8894
▁introduce	-8895
▁呼吁	-8896
▁Count	-8897
▁incor	-8898
▁multi	-8899
OM	-8900
▁肿	-8901
▁公告	-8902
▁朝鲜	-8903
gery	-8904
▁fighting	-8905
▁深刻	-8906
rogen	-8907
▁streets	-8908
▁injury	-8909
▁repair	-8910
▁催	-8911
▁崇	-8912
ero	-8913
▁日益	-8914
gage	-8915
oured	-8916
▁volume	-8917
▁whenever	-8918
▁functions	-8919
▁photograph	-8920
▁强制	-8921
▁Lee	-8922
▁remote	-8923
▁牵	-8924
asure	-8925
▁situ	-8926
▁yield	-8927
▁姐	-8928
▁官方	-8929
▁查阅	-8930
▁graph	-8931
▁legs	-8932
▁tells	-8933
不过	-8934
▁大声	-8935
▁受欢迎	-8936
▁conce	-8937
▁arrest	-8938
▁obvious	-8939
▁bacter	-8940
▁hundreds	-8941
▁在线	-8942
▁温暖	-8943
▁behavi	-8944
▁Nations	-8945
▁吓	-8946
▁土壤	-8947
▁现场	-8948
▁候选人	-8949
▁cutting	-8950
▁SC	-8951
areness	-8952
▁brings	-8953
▁defined	-8954
▁rent	-8955
▁Oper	-8956
PA	-8957
▁极大	-8958
▁nose	-8959
▁afford	-8960
▁van	-8961
ishing	-8962
▁Calif	-8963
▁claims	-8964
▁putting	-8965
▁味道	-8966
▁激烈	-8967
▁物种	-8968
▁bare	-8969
▁末	-8970
ald	-8971
▁个别	-8972
▁船只	-8973
▁所有人	-8974
▁hell	-8975
▁library	-8976
▁realized	-8977
▁Territ	-8978
▁Vis	-8979
▁inse	-8980
▁minim	-8981
▁weekend	-8982
▁透露	-8983
aded	-8984
▁疫	-8985
▁办理	-8986
▁惩罚	-8987
▁论坛	-8988
▁appeal	-8989
pro	-8990
▁400	-8991
▁solve	-8992
▁浅	-8993
▁乘客	-8994
▁球队	-8995
▁Person	-8996
▁奴	-8997
▁loan	-8998
▁referred	-8999
wers	-9000
▁百分之	-9001
ellect	-9002
▁宠	-9003
▁nobody	-9004
▁enquiries	-9005
▁monitoring	-9006
▁出于	-9007
▁床上	-9008
▁escape	-9009
▁帽	-9010
▁异常	-9011
▁桌子	-9012
IV	-9013
▁eggs	-9014
▁golden	-9015
▁修复	-9016
▁Aff	-9017
▁devices	-9018
▁妥	-9019
▁而已	-9020
▁至今	-9021
▁这部	-9022
▁suffer	-9023
▁moreover	-9024
▁挥	-9025
▁dogs	-9026
▁Tong	-9027
▁lawy	-9028
▁Democr	-9029
▁buying	-9030
▁赔	-9031
aser	-9032
▁HKSAR	-9033
▁withd	-9034
▁knowing	-9035
BS	-9036
长官	-9037
ext	-9038
▁两人	-9039
▁Wall	-9040
▁draft	-9041
▁消防	-9042
▁proposal	-9043
▁大会	-9044
▁指标	-9045
▁输出	-9046
▁选民	-9047
▁giant	-9048
▁enterprises	-9049
eph	-9050
▁义务	-9051
▁零零	-9052
▁paint	-9053
▁managed	-9054
▁叙	-9055
▁收益	-9056
▁一根	-9057
▁大陆	-9058
▁混乱	-9059
▁bridge	-9060
▁facing	-9061
▁wisdom	-9062
▁engineering	-9063
▁扮	-9064
▁众多	-9065
imately	-9066
▁taught	-9067
▁决心	-9068
▁魅	-9069
▁例句	-9070
▁vib	-9071
▁conflict	-9072
▁normally	-9073
▁长大	-9074
▁太空	-9075
▁实行	-9076
▁总部	-9077
▁简直	-9078
▁Asst	-9079
▁电子邮件	-9080
▁行政长官	-9081
▁helping	-9082
▁瓶	-9083
hus	-9084
▁湾仔	-9085
▁homes	-9086
▁favour	-9087
▁surely	-9088
▁existence	-9089
▁JP	-9090
▁争议	-9091
▁人才	-9092
▁密码	-9093
▁电力	-9094
▁共和党	-9095
▁上班	-9096
▁tum	-9097
▁resource	-9098
eters	-9099
▁favorite	-9100
▁郊	-9101
▁明年	-9102
▁补偿	-9103
orith	-9104
point	-9105
▁永久	-9106
▁succeed	-9107
▁纠	-9108
▁采购	-9109
.200	-9110
▁AS	-9111
▁体现	-9112
▁一声	-9113
▁生意	-9114
▁单独	-9115
▁合并	-9116
▁极其	-9117
rary	-9118
▁When	-9119
▁cant	-9120
▁Policy	-9121
▁乱	-9122
▁厨房	-9123
▁所述	-9124
fast	-9125
▁Pak	-9126
▁secure	-9127
unications	-9128
▁津	-9129
▁meal	-9130
▁Green	-9131
▁feels	-9132
▁relation	-9133
▁赋	-9134
▁使用者	-9135
▁flav	-9136
▁title	-9137
OU	-9138
▁时尚	-9139
▁fourth	-9140
▁孔	-9141
▁冒险	-9142
ivered	-9143
▁香港特别行政区	-9144
▁mountains	-9145
▁家长	-9146
umin	-9147
▁San	-9148
▁sheet	-9149
▁flying	-9150
▁不敢	-9151
▁submit	-9152
ipp	-9153
▁水果	-9154
▁Ins	-9155
▁ven	-9156
▁challenges	-9157
▁嗯	-9158
行为	-9159
aret	-9160
▁宏	-9161
▁取代	-9162
▁alive	-9163
▁usual	-9164
▁recall	-9165
▁strict	-9166
▁suffering	-9167
▁卢	-9168
▁腰	-9169
▁进程	-9170
▁Chung	-9171
▁Colle	-9172
▁conver	-9173
▁criter	-9174
玫瑰	-9175
▁燃烧	-9176
▁hun	-9177
▁hill	-9178
▁Product	-9179
▁differences	-9180
污染	-9181
▁慈善	-9182
▁uncon	-9183
▁Mo	-9184
▁prompt	-9185
▁opposite	-9186
In	-9187
▁consent	-9188
▁aircraft	-9189
▁ca	-9190
▁tot	-9191
▁trial	-9192
▁charges	-9193
▁executive	-9194
▁大幅	-9195
▁给出	-9196
▁alternative	-9197
▁04	-9198
▁一道	-9199
▁Mil	-9200
iform	-9201
▁faces	-9202
▁detailed	-9203
▁colleagues	-9204
▁regulations	-9205
▁拯	-9206
▁究	-9207
▁主意	-9208
▁connected	-9209
▁优惠	-9210
▁作业	-9211
▁pregn	-9212
▁unfort	-9213
▁concerning	-9214
▁优先	-9215
▁告知	-9216
▁courses	-9217
IA	-9218
▁豪	-9219
try	-9220
▁加以	-9221
▁走向	-9222
down	-9223
▁Mun	-9224
▁desert	-9225
▁pulled	-9226
▁劝	-9227
▁宫	-9228
不多	-9229
▁划分	-9230
▁逻辑	-9231
▁hen	-9232
▁局局长	-9233
▁Gold	-9234
▁Hall	-9235
▁diam	-9236
▁信仰	-9237
erate	-9238
▁sexual	-9239
▁得出	-9240
▁推荐	-9241
▁valuable	-9242
▁免疫	-9243
▁供应商	-9244
▁clock	-9245
▁employee	-9246
▁regional	-9247
▁practices	-9248
igr	-9249
▁精确	-9250
unte	-9251
▁typical	-9252
▁Chairman	-9253
▁拯救	-9254
▁竞选	-9255
cript	-9256
▁kitchen	-9257
▁properly	-9258
▁〕	-9259
▁input	-9260
▁不了	-9261
▁之内	-9262
▁房委会	-9263
field	-9264
▁sample	-9265
▁stable	-9266
▁intended	-9267
▁bull	-9268
▁inner	-9269
▁热线	-9270
▁艰难	-9271
▁determination	-9272
▁喊	-9273
▁firms	-9274
▁instrument	-9275
▁牙齿	-9276
▁Registration	-9277
▁什么样	-9278
▁subsid	-9279
▁listening	-9280
▁relationships	-9281
▁UK	-9282
▁体重	-9283
▁辐射	-9284
▁遗传	-9285
▁Data	-9286
▁oblig	-9287
▁border	-9288
urb	-9289
▁星期一	-9290
▁Life	-9291
▁势	-9292
▁剩下	-9293
▁crop	-9294
▁Micros	-9295
▁underst	-9296
▁lesson	-9297
▁sensitive	-9298
▁explained	-9299
▁inflation	-9300
▁provisions	-9301
▁developments	-9302
▁密切	-9303
▁hardly	-9304
▁principles	-9305
▁恐怕	-9306
▁餐厅	-9307
uses	-9308
▁THE	-9309
ocal	-9310
▁Hel	-9311
▁Hen	-9312
▁adapt	-9313
▁criminal	-9314
▁discover	-9315
▁convenient	-9316
里斯	-9317
▁友谊	-9318
▁rein	-9319
▁capable	-9320
forcement	-9321
▁creative	-9322
▁experienced	-9323
▁审查	-9324
▁手里	-9325
lying	-9326
▁increases	-9327
▁effectively	-9328
▁〔	-9329
▁每日	-9330
▁moral	-9331
▁欧元	-9332
▁话题	-9333
▁丑	-9334
▁性格	-9335
enth	-9336
▁increasingly	-9337
▁壁	-9338
edy	-9339
▁收购	-9340
▁lying	-9341
▁头脑	-9342
▁本来	-9343
▁lin	-9344
▁感兴趣	-9345
▁chain	-9346
▁acknow	-9347
▁comments	-9348
ING	-9349
▁shared	-9350
▁篮	-9351
克斯	-9352
▁呈现	-9353
▁管理局	-9354
▁bigger	-9355
▁Californ	-9356
▁crowd	-9357
▁noted	-9358
▁passing	-9359
▁咬	-9360
▁55	-9361
▁本文	-9362
▁通知书	-9363
▁indu	-9364
▁politic	-9365
▁commission	-9366
共和	-9367
▁迈克	-9368
▁Mal	-9369
▁vote	-9370
▁skill	-9371
分子	-9372
▁十月	-9373
▁tiss	-9374
▁describe	-9375
▁Peter	-9376
▁重要性	-9377
▁prin	-9378
▁Russian	-9379
▁Division	-9380
▁dil	-9381
▁remov	-9382
▁与其	-9383
▁四年	-9384
▁巴士	-9385
▁阿富	-9386
▁sed	-9387
▁jump	-9388
uction	-9389
▁processes	-9390
▁promotion	-9391
▁temporary	-9392
▁椅	-9393
▁阐	-9394
usal	-9395
▁hopes	-9396
▁柜	-9397
▁不停	-9398
▁代替	-9399
▁出租	-9400
▁月份	-9401
▁架构	-9402
rows	-9403
▁cycle	-9404
▁Design	-9405
▁combined	-9406
▁frequently	-9407
▁这会	-9408
▁阿富汗	-9409
cel	-9410
▁此次	-9411
▁邻居	-9412
cher	-9413
icon	-9414
▁Smith	-9415
ios	-9416
▁dipl	-9417
▁Cheung	-9418
西哥	-9419
▁电邮	-9420
▁破产	-9421
▁accounts	-9422
▁事项	-9423
▁抗议	-9424
▁tip	-9425
▁zone	-9426
▁Award	-9427
▁mission	-9428
▁开心	-9429
▁开车	-9430
▁恒	-9431
▁魅力	-9432
inton	-9433
isted	-9434
BA	-9435
▁说服	-9436
▁Queen	-9437
▁Christian	-9438
▁Download	-9439
▁挺	-9440
▁藉	-9441
▁依靠	-9442
▁坚定	-9443
▁天使	-9444
anks	-9445
▁cott	-9446
▁plays	-9447
▁洪	-9448
▁dedic	-9449
▁toler	-9450
▁warning	-9451
▁储存	-9452
▁取决	-9453
▁思维	-9454
▁arg	-9455
▁大规模	-9456
▁shell	-9457
▁reward	-9458
▁techniques	-9459
▁尚未	-9460
iest	-9461
▁aged	-9462
▁basket	-9463
▁stamps	-9464
▁遮	-9465
▁阿尔	-9466
▁disappoint	-9467
▁foundation	-9468
▁mostly	-9469
▁Training	-9470
▁awareness	-9471
▁computers	-9472
▁surprised	-9473
▁前景	-9474
▁摄影	-9475
▁150	-9476
▁prosper	-9477
▁algorith	-9478
▁soldiers	-9479
IP	-9480
▁优质	-9481
▁seeking	-9482
▁鲁	-9483
▁Id	-9484
▁invent	-9485
▁超级	-9486
▁rural	-9487
ien	-9488
▁背后	-9489
▁过度	-9490
▁clients	-9491
百万	-9492
▁种植	-9493
▁01	-9494
▁税务	-9495
crib	-9496
▁SM	-9497
▁用作	-9498
▁无论是	-9499
▁religious	-9500
▁OK	-9501
▁利率	-9502
▁err	-9503
▁wal	-9504
▁trick	-9505
▁concerns	-9506
▁IN	-9507
▁驱动	-9508
umped	-9509
▁committed	-9510
▁我方	-9511
▁Pat	-9512
▁elimin	-9513
汽车	-9514
共和国	-9515
ulous	-9516
▁watched	-9517
▁75	-9518
▁模糊	-9519
▁CN	-9520
ashed	-9521
▁shadow	-9522
▁pleased	-9523
▁块	-9524
膨胀	-9525
▁区别	-9526
▁发射	-9527
▁机关	-9528
▁politics	-9529
▁infrastructure	-9530
▁王子	-9531
▁组件	-9532
▁Arab	-9533
▁handling	-9534
▁schedule	-9535
▁Microsoft	-9536
以来	-9537
aze	-9538
▁癌症	-9539
▁黄金	-9540
▁小小	-9541
▁聚集	-9542
▁民主党	-9543
▁tong	-9544
▁耗	-9545
▁承受	-9546
▁毫不	-9547
▁administrative	-9548
先生	-9549
▁文档	-9550
▁标记	-9551
▁Muse	-9552
▁grave	-9553
矛盾	-9554
▁List	-9555
▁champ	-9556
▁到处	-9557
▁扮演	-9558
eping	-9559
▁noticed	-9560
▁宿	-9561
urt	-9562
▁从不	-9563
▁究竟	-9564
▁约会	-9565
▁老鼠	-9566
▁ended	-9567
▁extent	-9568
▁writer	-9569
▁repeated	-9570
▁Sol	-9571
▁greatly	-9572
▁突出	-9573
▁Del	-9574
entially	-9575
▁component	-9576
▁狼	-9577
▁教会	-9578
▁验证	-9579
▁Her	-9580
power	-9581
▁poet	-9582
orough	-9583
pective	-9584
▁paying	-9585
▁Institute	-9586
各地	-9587
▁cow	-9588
abilities	-9589
▁findings	-9590
▁continues	-9591
▁servants	-9592
▁地图	-9593
▁调用	-9594
inet	-9595
▁Area	-9596
▁Card	-9597
▁庞	-9598
不同	-9599
▁哪个	-9600
▁1997	-9601
unction	-9602
▁fer	-9603
▁专员	-9604
▁平等	-9605
▁摆脱	-9606
▁世界各地	-9607
▁examples	-9608
▁键	-9609
▁cheap	-9610
▁一同	-9611
▁无疑	-9612
hetic	-9613
▁Perm	-9614
▁hide	-9615
▁节日	-9616
▁这句	-9617
▁fol	-9618
▁牢	-9619
▁阁	-9620
▁监测	-9621
▁靠近	-9622
iu	-9623
ifications	-9624
▁delivered	-9625
oot	-9626
▁动态	-9627
▁过于	-9628
▁领袖	-9629
wide	-9630
▁acts	-9631
▁roof	-9632
Th	-9633
▁杨	-9634
▁羞	-9635
物质	-9636
▁symptoms	-9637
▁Commissioner	-9638
牺牲	-9639
▁进来	-9640
▁透明	-9641
▁therm	-9642
▁neighbor	-9643
▁噢	-9644
▁两次	-9645
▁季节	-9646
▁proved	-9647
ek	-9648
▁喂	-9649
行动	-9650
ica	-9651
▁代价	-9652
▁leadership	-9653
▁饥	-9654
▁knock	-9655
▁recru	-9656
安全	-9657
rob	-9658
▁有权	-9659
▁观念	-9660
▁Grand	-9661
▁string	-9662
▁emotional	-9663
▁不如	-9664
▁终止	-9665
▁begins	-9666
▁options	-9667
▁回收	-9668
▁unus	-9669
▁procedure	-9670
下去	-9671
▁sequ	-9672
▁College	-9673
▁聊	-9674
▁传真	-9675
▁粮食	-9676
▁41	-9677
▁队伍	-9678
rene	-9679
▁Ham	-9680
▁faster	-9681
▁一日	-9682
▁confirm	-9683
▁passengers	-9684
▁人会	-9685
▁优化	-9686
▁疼痛	-9687
▁salary	-9688
▁consultation	-9689
itz	-9690
▁性别	-9691
▁船舶	-9692
▁aband	-9693
▁剥	-9694
▁hate	-9695
▁Advis	-9696
AD	-9697
▁陌	-9698
▁监狱	-9699
▁高等	-9700
▁pill	-9701
▁ride	-9702
▁牛奶	-9703
▁CS	-9704
▁勇敢	-9705
▁安静	-9706
▁尺寸	-9707
▁远离	-9708
▁部队	-9709
▁revealed	-9710
▁取决于	-9711
▁butter	-9712
▁nearby	-9713
▁philosoph	-9714
▁regarding	-9715
▁帝	-9716
rid	-9717
▁放射	-9718
▁聚会	-9719
▁英尺	-9720
▁creation	-9721
▁体内	-9722
▁框架	-9723
▁pump	-9724
▁页面	-9725
elling	-9726
▁橡	-9727
▁哈利	-9728
▁rank	-9729
▁公路	-9730
▁函数	-9731
▁大气	-9732
ench	-9733
▁效应	-9734
▁Rich	-9735
▁flag	-9736
▁mole	-9737
▁studying	-9738
▁confirmed	-9739
▁Environmental	-9740
ird	-9741
▁外部	-9742
▁深深	-9743
▁fert	-9744
▁冠军	-9745
▁紧密	-9746
▁drag	-9747
▁dram	-9748
▁cream	-9749
▁人力	-9750
▁pup	-9751
▁appreciate	-9752
▁containing	-9753
▁设有	-9754
▁乔治	-9755
▁最为	-9756
▁英雄	-9757
▁飘	-9758
▁保守	-9759
▁context	-9760
▁繁荣	-9761
▁owned	-9762
utation	-9763
▁regions	-9764
▁controlled	-9765
▁出发	-9766
▁卫星	-9767
▁周期	-9768
▁室内	-9769
▁星期五	-9770
▁Engine	-9771
▁listed	-9772
▁starts	-9773
▁incident	-9774
▁吞	-9775
▁引导	-9776
▁thinks	-9777
▁ax	-9778
▁送给	-9779
▁墨西哥	-9780
▁nurs	-9781
▁enable	-9782
▁granted	-9783
▁substant	-9784
▁狮	-9785
▁Chen	-9786
▁interpret	-9787
▁宾	-9788
▁号码	-9789
▁vig	-9790
▁制造商	-9791
▁grace	-9792
▁Windows	-9793
▁倍	-9794
▁卧	-9795
▁朱	-9796
▁豁	-9797
▁之下	-9798
▁完善	-9799
▁法定	-9800
▁hes	-9801
▁vit	-9802
▁obst	-9803
▁dish	-9804
▁loud	-9805
▁bottle	-9806
▁earthquake	-9807
▁印刷	-9808
▁替代	-9809
▁bone	-9810
▁lights	-9811
▁presentation	-9812
▁绕	-9813
▁削减	-9814
▁landsc	-9815
不可	-9816
▁Transport	-9817
▁intellect	-9818
▁泄	-9819
▁交谈	-9820
▁谨慎	-9821
▁whis	-9822
▁rig	-9823
▁frequency	-9824
GC	-9825
设施	-9826
▁市区	-9827
▁浪漫	-9828
▁特色	-9829
▁陌生	-9830
quar	-9831
▁concrete	-9832
▁闭	-9833
▁requirement	-9834
KB	-9835
▁骄	-9836
电视	-9837
▁嘉宾	-9838
▁merc	-9839
▁resc	-9840
▁tooth	-9841
▁chicken	-9842
▁permanent	-9843
▁闻	-9844
▁骗	-9845
▁十五	-9846
▁Sea	-9847
▁decade	-9848
▁seriously	-9849
uman	-9850
▁solar	-9851
▁theme	-9852
▁Region	-9853
▁native	-9854
▁confident	-9855
▁狭	-9856
▁iP	-9857
▁pul	-9858
▁wash	-9859
▁collected	-9860
▁statistics	-9861
▁熊	-9862
设计	-9863
▁便宜	-9864
▁主义	-9865
▁诚实	-9866
▁ought	-9867
▁painting	-9868
▁韦	-9869
▁原始	-9870
▁将要	-9871
▁码头	-9872
▁boost	-9873
▁announce	-9874
▁两者	-9875
▁制成	-9876
▁Brown	-9877
▁talked	-9878
▁只不过	-9879
▁servant	-9880
▁主动	-9881
▁人工	-9882
▁打破	-9883
▁测定	-9884
▁Mod	-9885
▁coat	-9886
▁dropped	-9887
ibilities	-9888
▁experiences	-9889
kin	-9890
icing	-9891
raz	-9892
▁伪	-9893
▁ll	-9894
▁牧师	-9895
▁讨厌	-9896
atelic	-9897
▁coord	-9898
▁enthus	-9899
▁justice	-9900
▁planned	-9901
▁removed	-9902
▁guidelines	-9903
omp	-9904
apes	-9905
▁Afgh	-9906
▁夫妇	-9907
▁视觉	-9908
▁fet	-9909
▁There	-9910
▁amend	-9911
▁joined	-9912
▁California	-9913
▁comprehensive	-9914
▁箱	-9915
▁勇气	-9916
▁时光	-9917
atin	-9918
▁explan	-9919
▁entertain	-9920
▁莎	-9921
hop	-9922
▁参议	-9923
▁英里	-9924
▁wound	-9925
▁Offices	-9926
▁样本	-9927
▁重量	-9928
▁applicants	-9929
▁绝不	-9930
▁论文	-9931
▁艺术家	-9932
▁beside	-9933
▁illust	-9934
▁疏	-9935
ails	-9936
▁Tre	-9937
uster	-9938
▁阵	-9939
▁将军	-9940
▁扎	-9941
▁定位	-9942
15	-9943
▁哀	-9944
iao	-9945
▁业界	-9946
▁担忧	-9947
teen	-9948
▁enthusi	-9949
▁准则	-9950
▁极端	-9951
▁跌	-9952
政策	-9953
▁应付	-9954
▁fans	-9955
▁committee	-9956
▁涌	-9957
▁摘要	-9958
▁muse	-9959
▁leads	-9960
▁resolution	-9961
▁闲	-9962
▁履行	-9963
▁有害	-9964
▁负担	-9965
▁remem	-9966
▁silence	-9967
▁trop	-9968
▁享有	-9969
▁注意力	-9970
▁marine	-9971
▁farmers	-9972
▁institution	-9973
▁刚才	-9974
----	-9975
▁Sim	-9976
atell	-9977
▁orient	-9978
▁Territories	-9979
▁advertising	-9980
▁arrangements	-9981
▁蜂	-9982
▁齐	-9983
▁43	-9984
uties	-9985
▁gall	-9986
▁collab	-9987
▁debate	-9988
▁finance	-9989
▁obviously	-9990
asy	-9991
▁情形	-9992
▁目光	-9993
▁走出	-9994
▁Stat	-9995
▁个性	-9996
ouds	-9997
▁vital	-9998
casting	-9999
▁consideration	-10000
号码	-10001
▁实用	-10002
▁舒服	-10003
▁Sch	-10004
▁奔	-10005
▁La	-10006
▁副本	-10007
▁向前	-10008
haust	-10009
inder	-10010
▁isol	-10011
▁Child	-10012
▁cried	-10013
▁sched	-10014
▁identified	-10015
▁已有	-10016
年来	-10017
▁与此	-10018
▁工商	-10019
▁抱歉	-10020
▁Lin	-10021
▁runs	-10022
▁regret	-10023
▁argument	-10024
▁交给	-10025
▁pages	-10026
▁causing	-10027
克力	-10028
▁食用	-10029
▁没什么	-10030
▁Shen	-10031
▁attacks	-10032
▁corruption	-10033
▁馆	-10034
▁Up	-10035
▁Tur	-10036
▁毫无疑问	-10037
▁discl	-10038
▁shout	-10039
▁dispos	-10040
▁删	-10041
nic	-10042
▁广场	-10043
▁港口	-10044
▁picked	-10045
▁charged	-10046
▁missing	-10047
▁blog	-10048
▁struck	-10049
▁expressed	-10050
▁historical	-10051
▁陶	-10052
tes	-10053
▁ha	-10054
▁愚蠢	-10055
▁转向	-10056
itis	-10057
▁同意书	-10058
▁plain	-10059
▁windows	-10060
▁Jew	-10061
▁schol	-10062
经济	-10063
▁优点	-10064
▁Community	-10065
▁招聘	-10066
▁机器人	-10067
▁defect	-10068
▁driven	-10069
▁infection	-10070
▁holds	-10071
意义	-10072
▁幽默	-10073
iel	-10074
▁南部	-10075
▁岩石	-10076
▁aside	-10077
▁licens	-10078
▁appointed	-10079
▁exhibition	-10080
▁Met	-10081
▁terr	-10082
▁electrical	-10083
▁庄	-10084
▁信贷	-10085
▁农村	-10086
▁并不	-10087
▁proport	-10088
▁棉	-10089
cut	-10090
lam	-10091
▁帐户	-10092
ogen	-10093
▁亨	-10094
▁无限	-10095
▁transaction	-10096
能力	-10097
▁悲伤	-10098
▁长度	-10099
▁念	-10100
▁惟	-10101
▁巴基	-10102
▁teams	-10103
60	-10104
▁绑	-10105
▁依据	-10106
▁列表	-10107
▁behold	-10108
22	-10109
男孩	-10110
▁公寓	-10111
▁双手	-10112
▁填写	-10113
▁牺牲	-10114
▁十一月	-10115
▁defe	-10116
▁elig	-10117
▁extended	-10118
▁吊	-10119
▁减轻	-10120
▁孤独	-10121
▁每月	-10122
▁ends	-10123
▁wake	-10124
ighter	-10125
▁Afghan	-10126
aks	-10127
▁先进	-10128
▁海上	-10129
orters	-10130
▁pocket	-10131
▁ticket	-10132
▁渠	-10133
uro	-10134
▁圣经	-10135
▁民众	-10136
▁气象	-10137
▁incl	-10138
▁酒吧	-10139
▁Imm	-10140
▁fees	-10141
▁discount	-10142
▁带到	-10143
▁有益	-10144
▁订购	-10145
▁likes	-10146
▁滋	-10147
▁Sum	-10148
▁安慰	-10149
▁尸体	-10150
▁文明	-10151
▁诉讼	-10152
▁util	-10153
▁羽	-10154
▁远远	-10155
▁对不起	-10156
▁Mong	-10157
▁stands	-10158
▁姿	-10159
尔夫	-10160
▁heads	-10161
▁semin	-10162
▁公里	-10163
▁草案	-10164
▁饮料	-10165
athy	-10166
▁星期六	-10167
▁nerv	-10168
taining	-10169
▁arrive	-10170
▁讯	-10171
▁loving	-10172
▁manufacturing	-10173
▁辞	-10174
▁饱	-10175
▁waves	-10176
▁Center	-10177
▁dynamic	-10178
▁supported	-10179
▁后果	-10180
ching	-10181
▁drawing	-10182
▁minimum	-10183
▁clothing	-10184
gt	-10185
▁门口	-10186
▁07	-10187
▁顺利	-10188
▁巧克力	-10189
▁alarm	-10190
▁Police	-10191
▁interface	-10192
uce	-10193
▁国外	-10194
▁情人	-10195
EM	-10196
▁impl	-10197
▁Black	-10198
▁honey	-10199
▁truck	-10200
▁closer	-10201
▁struggle	-10202
▁radiation	-10203
▁regulation	-10204
▁legislation	-10205
▁看不	-10206
▁社交	-10207
ester	-10208
▁cryst	-10209
▁intelligence	-10210
▁一篇	-10211
▁巴基斯坦	-10212
▁Mexic	-10213
▁调节	-10214
AM	-10215
▁通道	-10216
▁aer	-10217
▁abst	-10218
▁Labour	-10219
▁innovation	-10220
▁lift	-10221
▁illegal	-10222
▁什	-10223
ait	-10224
▁农场	-10225
▁想想	-10226
▁cig	-10227
▁merely	-10228
▁volunte	-10229
▁estimated	-10230
▁personnel	-10231
▁嘲	-10232
▁头上	-10233
▁湿地	-10234
arsh	-10235
▁sees	-10236
▁observed	-10237
▁颇	-10238
▁06	-10239
aming	-10240
▁cler	-10241
▁inject	-10242
▁receiving	-10243
▁肝	-10244
▁99	-10245
▁Wu	-10246
▁布朗	-10247
anges	-10248
ateral	-10249
▁轴	-10250
▁吸引力	-10251
ancial	-10252
▁camera	-10253
bal	-10254
▁液体	-10255
▁pin	-10256
▁圣诞节	-10257
▁Meeting	-10258
▁受害	-10259
▁巴西	-10260
▁愿望	-10261
oster	-10262
▁bomb	-10263
▁Support	-10264
▁deposit	-10265
▁基督教	-10266
▁这方面	-10267
▁Commerce	-10268
▁apartment	-10269
▁尘	-10270
▁欠	-10271
▁02	-10272
▁国民	-10273
▁成果	-10274
▁贫困	-10275
▁spoken	-10276
▁immediate	-10277
▁satisfied	-10278
ana	-10279
▁屋子	-10280
▁缺少	-10281
▁facilitate	-10282
▁家伙	-10283
▁冲击	-10284
▁Museum	-10285
▁昆	-10286
水平	-10287
▁主持	-10288
▁cultiv	-10289
▁原子	-10290
▁询问	-10291
▁195	-10292
▁Station	-10293
▁aggress	-10294
▁performed	-10295
HK	-10296
▁初步	-10297
▁民政	-10298
▁演员	-10299
▁quantity	-10300
▁加速	-10301
▁lux	-10302
▁chosen	-10303
▁keeps	-10304
▁shoulder	-10305
▁submitted	-10306
▁盒	-10307
▁冬天	-10308
▁审判	-10309
▁所得	-10310
▁finger	-10311
▁illness	-10312
▁arrangement	-10313
▁职责	-10314
▁constant	-10315
▁多样	-10316
▁提取	-10317
▁暗示	-10318
▁目录	-10319
▁supporting	-10320
▁bon	-10321
▁dece	-10322
▁exhib	-10323
▁plenty	-10324
▁rapidly	-10325
▁possibly	-10326
▁possibility	-10327
文件	-10328
▁签证	-10329
▁Study	-10330
条件	-10331
asp	-10332
▁teen	-10333
▁younger	-10334
▁employer	-10335
▁electricity	-10336
▁詹	-10337
rem	-10338
▁共有	-10339
▁消耗	-10340
▁schem	-10341
eding	-10342
▁protein	-10343
▁improving	-10344
▁构建	-10345
▁Fil	-10346
▁saving	-10347
▁victory	-10348
▁professor	-10349
▁Priv	-10350
▁握	-10351
迹象	-10352
opy	-10353
▁经典	-10354
▁dad	-10355
▁lucky	-10356
▁聘	-10357
▁乡村	-10358
▁同情	-10359
▁真理	-10360
▁轨道	-10361
▁Just	-10362
▁Town	-10363
▁involve	-10364
▁』	-10365
▁提问	-10366
▁激动	-10367
▁重视	-10368
icip	-10369
▁Review	-10370
▁operate	-10371
▁convention	-10372
▁隐藏	-10373
▁ears	-10374
▁tasks	-10375
urities	-10376
▁expans	-10377
▁retire	-10378
▁subsequ	-10379
DP	-10380
▁篇	-10381
▁衡	-10382
责任	-10383
eds	-10384
▁要么	-10385
▁commod	-10386
▁organis	-10387
TS	-10388
▁长者	-10389
▁Mount	-10390
▁branch	-10391
▁achieved	-10392
▁disaster	-10393
▁史密	-10394
▁shirt	-10395
▁solutions	-10396
▁常用	-10397
▁本质	-10398
▁物体	-10399
▁祈祷	-10400
▁首都	-10401
owed	-10402
▁inher	-10403
▁rooms	-10404
▁vegetables	-10405
TO	-10406
▁委任	-10407
▁pit	-10408
▁差不多	-10409
going	-10410
▁compr	-10411
▁observe	-10412
▁refused	-10413
▁么	-10414
▁传染	-10415
▁charm	-10416
▁entirely	-10417
▁未经	-10418
▁Love	-10419
▁grade	-10420
▁saved	-10421
▁ash	-10422
▁arts	-10423
inding	-10424
▁prime	-10425
▁Corpor	-10426
▁accounting	-10427
▁设法	-10428
▁Jim	-10429
▁uncom	-10430
ww	-10431
消息	-10432
ype	-10433
▁便是	-10434
▁进去	-10435
▁III	-10436
人士	-10437
exp	-10438
▁赋予	-10439
amber	-10440
▁lamp	-10441
▁explos	-10442
▁uniform	-10443
学院	-10444
▁新年	-10445
▁旅馆	-10446
▁窗户	-10447
lines	-10448
▁simpl	-10449
inations	-10450
▁burning	-10451
▁equival	-10452
can	-10453
▁relief	-10454
▁粒	-10455
asures	-10456
▁略	-10457
▁路线	-10458
▁fro	-10459
▁principal	-10460
▁崩	-10461
ago	-10462
▁激励	-10463
▁生效	-10464
▁继承	-10465
▁轻轻	-10466
▁hidden	-10467
▁thorough	-10468
▁Conference	-10469
▁difficulties	-10470
nd	-10471
▁邪	-10472
▁度假	-10473
▁祝福	-10474
▁Sil	-10475
idance	-10476
▁在内	-10477
▁干净	-10478
▁必然	-10479
▁懂得	-10480
cture	-10481
▁register	-10482
▁脱离	-10483
▁raw	-10484
▁hast	-10485
▁aspects	-10486
▁扶	-10487
▁八月	-10488
▁mixed	-10489
▁accompan	-10490
▁darkness	-10491
▁盯	-10492
▁中小	-10493
▁以往	-10494
▁刑事	-10495
▁事务处	-10496
▁margin	-10497
▁印象	-10498
▁热带	-10499
anging	-10500
▁Financial	-10501
▁03	-10502
▁52	-10503
abled	-10504
▁Inte	-10505
▁指南	-10506
▁stem	-10507
▁trig	-10508
▁beach	-10509
▁button	-10510
▁无人	-10511
▁Term	-10512
athered	-10513
▁今后	-10514
▁跟踪	-10515
▁hath	-10516
▁advent	-10517
▁contem	-10518
▁losing	-10519
▁晶	-10520
▁录音	-10521
▁玫瑰	-10522
▁骄傲	-10523
▁Add	-10524
▁recognition	-10525
▁愈	-10526
▁逆	-10527
▁夜晚	-10528
▁春天	-10529
▁餐馆	-10530
word	-10531
▁encl	-10532
▁James	-10533
▁reduction	-10534
▁selection	-10535
▁遭遇	-10536
▁plus	-10537
▁shift	-10538
▁Airport	-10539
▁Pakistan	-10540
▁remaining	-10541
▁respectively	-10542
▁diplom	-10543
▁澳门	-10544
▁荷兰	-10545
▁薪酬	-10546
▁赔偿	-10547
idays	-10548
▁shel	-10549
▁gradu	-10550
▁excuse	-10551
▁dumping	-10552
▁纵	-10553
erg	-10554
▁编号	-10555
▁vul	-10556
ights	-10557
▁chart	-10558
▁African	-10559
▁establishment	-10560
▁哲学	-10561
▁较大	-10562
▁prol	-10563
▁Festival	-10564
iah	-10565
▁回去	-10566
tical	-10567
▁poison	-10568
▁distinct	-10569
▁involving	-10570
▁妹	-10571
▁踢	-10572
▁辅助	-10573
▁recognized	-10574
▁understood	-10575
▁勤	-10576
▁挪	-10577
▁漏	-10578
▁自从	-10579
ologist	-10580
▁preparation	-10581
▁展现	-10582
▁底部	-10583
▁豁免	-10584
▁ordered	-10585
▁patterns	-10586
▁织	-10587
六年	-10588
委员	-10589
▁克服	-10590
▁家族	-10591
▁惊人	-10592
▁残疾	-10593
▁persu	-10594
▁surgery	-10595
▁沙田	-10596
▁礼貌	-10597
▁guests	-10598
▁Assistant	-10599
阶段	-10600
ONG	-10601
ris	-10602
▁促使	-10603
▁指控	-10604
▁超越	-10605
▁辩论	-10606
olic	-10607
▁Obs	-10608
▁previously	-10609
▁房地	-10610
▁群体	-10611
vy	-10612
▁柏	-10613
▁两位	-10614
▁演出	-10615
▁迹象	-10616
▁casual	-10617
▁elderly	-10618
▁珊	-10619
▁期限	-10620
itage	-10621
▁drawn	-10622
▁faced	-10623
▁worried	-10624
▁65	-10625
▁讲述	-10626
greg	-10627
▁unl	-10628
▁precious	-10629
▁industries	-10630
▁competitive	-10631
▁乐趣	-10632
▁白宫	-10633
▁asc	-10634
▁surf	-10635
▁上涨	-10636
▁pip	-10637
▁vacc	-10638
▁pointed	-10639
▁引用	-10640
▁约束	-10641
▁default	-10642
▁宠物	-10643
born	-10644
▁weapons	-10645
▁investigate	-10646
▁序	-10647
自然	-10648
▁上市	-10649
▁下跌	-10650
▁渐渐	-10651
▁criteria	-10652
▁educational	-10653
▁吻	-10654
oir	-10655
▁坐下	-10656
▁圈	-10657
▁洋	-10658
▁续	-10659
生素	-10660
bled	-10661
▁advis	-10662
▁创意	-10663
apse	-10664
etary	-10665
▁chest	-10666
▁rescue	-10667
▁troops	-10668
▁somebody	-10669
▁everywhere	-10670
▁HA	-10671
▁商人	-10672
▁缓慢	-10673
urally	-10674
▁fishing	-10675
iverse	-10676
▁accum	-10677
▁meetings	-10678
▁豆	-10679
▁So	-10680
▁其次	-10681
▁十八	-10682
▁罪行	-10683
▁Administrative	-10684
ya	-10685
▁卓	-10686
▁fan	-10687
▁receip	-10688
▁persist	-10689
▁contents	-10690
▁多次	-10691
▁指责	-10692
▁附加	-10693
bered	-10694
charge	-10695
▁winning	-10696
▁recognize	-10697
▁strategic	-10698
▁围绕	-10699
▁椅子	-10700
▁人民币	-10701
▁Chai	-10702
▁工作人员	-10703
▁Olympics	-10704
▁southern	-10705
▁personality	-10706
▁一头	-10707
▁学者	-10708
▁行李	-10709
同时	-10710
▁一小	-10711
▁新型	-10712
▁与此同时	-10713
▁penal	-10714
▁54	-10715
▁天堂	-10716
▁狮子	-10717
▁Vol	-10718
▁topic	-10719
▁Affairs	-10720
▁踏	-10721
经理	-10722
anda	-10723
leep	-10724
▁英格兰	-10725
▁Broad	-10726
▁everyday	-10727
时候	-10728
▁欺骗	-10729
▁源自	-10730
alle	-10731
▁反倾	-10732
▁各位	-10733
▁教练	-10734
▁Joseph	-10735
▁开幕	-10736
▁流程	-10737
▁史密斯	-10738
▁recorded	-10739
▁commitment	-10740
▁芬	-10741
▁不良	-10742
pers	-10743
▁上去	-10744
▁反倾销	-10745
▁terrible	-10746
▁截至	-10747
▁感激	-10748
▁独自	-10749
▁ISO	-10750
▁Lu	-10751
▁寿	-10752
▁Point	-10753
▁thirty	-10754
▁allowing	-10755
how	-10756
ram	-10757
▁尊敬	-10758
▁西部	-10759
▁第二个	-10760
▁shares	-10761
▁promoting	-10762
▁丁	-10763
▁奋	-10764
▁江	-10765
▁设定	-10766
oral	-10767
▁machines	-10768
▁暖	-10769
rect	-10770
▁colon	-10771
▁shaped	-10772
▁breakfast	-10773
▁吩	-10774
▁辨	-10775
▁古代	-10776
▁矛盾	-10777
▁fabric	-10778
▁dealing	-10779
▁cleaning	-10780
▁脊	-10781
▁布莱	-10782
▁era	-10783
▁尽可能	-10784
RE	-10785
▁疑	-10786
伯特	-10787
▁何时	-10788
▁杀死	-10789
▁Italy	-10790
▁samples	-10791
▁technologies	-10792
▁郑	-10793
▁强度	-10794
▁转让	-10795
▁Lam	-10796
▁cos	-10797
▁chocol	-10798
▁covers	-10799
▁linked	-10800
▁articles	-10801
▁匹	-10802
▁鬼	-10803
▁四十	-10804
▁欢乐	-10805
▁colors	-10806
▁decline	-10807
otion	-10808
▁1990	-10809
▁surve	-10810
▁sought	-10811
▁众人	-10812
▁至于	-10813
▁Martin	-10814
▁fingers	-10815
法院	-10816
▁边界	-10817
▁遗憾	-10818
▁ment	-10819
▁judgment	-10820
▁上下	-10821
▁五个	-10822
▁斗争	-10823
▁法案	-10824
▁种子	-10825
verty	-10826
▁internet	-10827
▁洁	-10828
▁不安	-10829
▁携带	-10830
▁野生	-10831
▁第二次	-10832
▁deleg	-10833
▁arranged	-10834
▁傻	-10835
▁Us	-10836
▁吩咐	-10837
▁私隐	-10838
▁肥胖	-10839
ford	-10840
▁Aut	-10841
▁accurate	-10842
▁evaluation	-10843
▁仇	-10844
▁一组	-10845
▁眼前	-10846
▁金额	-10847
ille	-10848
▁Inf	-10849
amental	-10850
▁precise	-10851
▁理念	-10852
lands	-10853
▁massive	-10854
▁poverty	-10855
▁contained	-10856
▁够	-10857
▁戏剧	-10858
ayer	-10859
▁fib	-10860
▁acting	-10861
▁highlight	-10862
▁【	-10863
▁逗	-10864
标准	-10865
▁品种	-10866
▁chat	-10867
▁clouds	-10868
▁Certificate	-10869
▁侦	-10870
▁贫穷	-10871
▁magic	-10872
▁evolution	-10873
▁―	-10874
▁决不	-10875
▁总结	-10876
inity	-10877
pring	-10878
▁Quality	-10879
▁brothers	-10880
▁屈	-10881
appy	-10882
▁1000	-10883
▁worker	-10884
▁complaints	-10885
▁significance	-10886
▁复苏	-10887
▁据说	-10888
▁Joe	-10889
chant	-10890
▁Code	-10891
▁powers	-10892
▁dressed	-10893
▁subjects	-10894
▁swimming	-10895
星期	-10896
▁前进	-10897
▁即时	-10898
▁scope	-10899
▁adults	-10900
▁divided	-10901
▁returns	-10902
▁博客	-10903
▁送到	-10904
▁Dist	-10905
▁经济学家	-10906
一日	-10907
▁北部	-10908
▁英国人	-10909
▁unem	-10910
▁sheep	-10911
▁occurred	-10912
▁printing	-10913
▁对抗	-10914
▁频率	-10915
▁relating	-10916
丽莎	-10917
▁Str	-10918
ommod	-10919
▁fant	-10920
▁channel	-10921
▁regularly	-10922
▁46	-10923
▁facts	-10924
▁algorithm	-10925
▁分为	-10926
what	-10927
▁1996	-10928
▁bureau	-10929
▁profits	-10930
▁公正	-10931
▁屏幕	-10932
▁扫描	-10933
▁房地产	-10934
▁Da	-10935
▁mutual	-10936
▁talent	-10937
▁各自	-10938
▁屋宇	-10939
▁版权	-10940
▁由此	-10941
▁订单	-10942
▁craft	-10943
▁proposals	-10944
▁difficulty	-10945
一下	-10946
影响	-10947
▁致命	-10948
acks	-10949
▁stom	-10950
▁formation	-10951
iot	-10952
▁地铁	-10953
▁附件	-10954
▁handed	-10955
▁Library	-10956
▁exhaust	-10957
▁territory	-10958
▁representative	-10959
▁合成	-10960
▁座位	-10961
▁摩西	-10962
▁marked	-10963
▁occurs	-10964
▁literature	-10965
rum	-10966
▁答应	-10967
▁若干	-10968
▁Rob	-10969
icious	-10970
▁cheer	-10971
▁guarantee	-10972
▁47	-10973
▁公主	-10974
▁单元	-10975
▁危害	-10976
▁支出	-10977
▁衡量	-10978
▁haz	-10979
▁exclud	-10980
▁Yuen	-10981
▁fold	-10982
▁stup	-10983
▁links	-10984
▁reducing	-10985
▁suffered	-10986
▁advantages	-10987
▁cy	-10988
▁portion	-10989
▁magazine	-10990
▁场所	-10991
▁athlet	-10992
▁6.	-10993
▁拍卖	-10994
▁Inc	-10995
▁banking	-10996
▁admitted	-10997
▁advertise	-10998
▁屯	-10999
▁基地	-11000
▁院校	-11001
icted	-11002
▁sword	-11003
▁considering	-11004
▁grav	-11005
▁凶	-11006
▁制订	-11007
ifice	-11008
▁Conf	-11009
▁drain	-11010
▁dwell	-11011
▁transp	-11012
▁mistakes	-11013
▁找出	-11014
▁私营	-11015
▁Mgr	-11016
▁蛋白质	-11017
▁lips	-11018
▁Apple	-11019
尔兰	-11020
拉斯	-11021
rim	-11022
▁kick	-11023
▁typically	-11024
▁沮	-11025
▁脆	-11026
▁积金	-11027
▁harder	-11028
▁hearts	-11029
▁图案	-11030
▁引入	-11031
▁总署	-11032
▁损伤	-11033
ensus	-11034
▁Cultural	-11035
▁absolutely	-11036
▁structures	-11037
▁逾	-11038
▁并未	-11039
▁enorm	-11040
▁畅	-11041
句话	-11042
▁威廉	-11043
▁干扰	-11044
▁海关	-11045
icide	-11046
▁pace	-11047
▁horiz	-11048
▁affairs	-11049
▁懒	-11050
▁一所	-11051
▁子女	-11052
▁爱好	-11053
▁致辞	-11054
▁Budd	-11055
▁recip	-11056
▁thread	-11057
▁managers	-11058
▁languages	-11059
oning	-11060
▁stro	-11061
▁adequ	-11062
ologists	-11063
▁太平	-11064
▁提前	-11065
▁认证	-11066
▁进化	-11067
▁blank	-11068
▁nervous	-11069
▁sharing	-11070
▁爵	-11071
wing	-11072
▁forecast	-11073
▁耐心	-11074
▁谈到	-11075
▁天文台	-11076
▁frust	-11077
▁agents	-11078
IL	-11079
aug	-11080
▁所作	-11081
▁tone	-11082
▁料	-11083
▁看出	-11084
▁阻碍	-11085
▁高中	-11086
▁Team	-11087
▁subsc	-11088
▁出色	-11089
▁tempt	-11090
▁degrees	-11091
▁Advisory	-11092
▁涵	-11093
反应	-11094
▁好象	-11095
▁广东	-11096
▁激情	-11097
▁这张	-11098
▁Mer	-11099
▁秘书长	-11100
ensions	-11101
▁satell	-11102
▁impress	-11103
▁candidate	-11104
▁recession	-11105
▁节省	-11106
▁小小的	-11107
▁Pass	-11108
▁framework	-11109
▁盗	-11110
▁一层	-11111
▁不满	-11112
▁亦可	-11113
▁营业	-11114
▁600	-11115
▁神圣	-11116
▁mirror	-11117
▁unusual	-11118
▁believes	-11119
▁intention	-11120
MS	-11121
▁臭	-11122
▁专利	-11123
▁tested	-11124
▁funding	-11125
▁提名	-11126
▁每当	-11127
▁海水	-11128
▁Kok	-11129
▁fright	-11130
▁AT	-11131
▁明星	-11132
▁短期	-11133
lease	-11134
▁Yang	-11135
▁sentence	-11136
▁mechanical	-11137
▁偿	-11138
▁恋	-11139
▁两国	-11140
▁火山	-11141
▁praise	-11142
▁Society	-11143
▁attractive	-11144
▁perspective	-11145
▁automatically	-11146
▁活力	-11147
▁falls	-11148
reement	-11149
▁singing	-11150
▁reputation	-11151
▁绳	-11152
▁忽视	-11153
▁跟着	-11154
▁beer	-11155
▁trem	-11156
▁suppose	-11157
▁candidates	-11158
▁壮	-11159
▁Ve	-11160
▁姓名	-11161
▁帽子	-11162
▁推进	-11163
▁罚款	-11164
▁行星	-11165
▁讲座	-11166
uits	-11167
umer	-11168
▁AND	-11169
▁bub	-11170
▁indicate	-11171
▁芝	-11172
价格	-11173
隧道	-11174
▁家中	-11175
iration	-11176
▁prevention	-11177
▁等到	-11178
▁News	-11179
holders	-11180
▁powder	-11181
▁organic	-11182
▁routine	-11183
▁Exchange	-11184
▁关联	-11185
▁地板	-11186
▁Mat	-11187
▁Moses	-11188
▁promised	-11189
▁EC	-11190
▁其余	-11191
▁海军	-11192
ouven	-11193
▁innoc	-11194
▁哥哥	-11195
▁在家	-11196
▁就算	-11197
kind	-11198
▁monthly	-11199
▁Contract	-11200
▁原理	-11201
▁尽力	-11202
▁部长	-11203
▁青春	-11204
▁信用卡	-11205
▁lake	-11206
▁Force	-11207
▁deter	-11208
ouvenir	-11209
▁rational	-11210
▁constantly	-11211
▁尿	-11212
▁一千	-11213
▁好几	-11214
▁树木	-11215
▁索取	-11216
▁unh	-11217
▁Head	-11218
▁伴侣	-11219
▁认知	-11220
▁tube	-11221
▁Members	-11222
▁unfortunately	-11223
滋病	-11224
▁名叫	-11225
▁无可	-11226
▁沮丧	-11227
▁气候变化	-11228
▁apple	-11229
issions	-11230
▁secondary	-11231
▁participate	-11232
▁51	-11233
▁支撑	-11234
▁疫苗	-11235
▁Ren	-11236
▁wond	-11237
▁begun	-11238
▁moist	-11239
▁stores	-11240
▁outstanding	-11241
PD	-11242
结构	-11243
now	-11244
▁故障	-11245
▁耶路	-11246
▁链接	-11247
▁largely	-11248
▁visited	-11249
▁Ke	-11250
▁偶尔	-11251
▁十四	-11252
▁彼得	-11253
▁decor	-11254
▁infect	-11255
▁搅	-11256
enza	-11257
astern	-11258
coming	-11259
▁constr	-11260
▁fallen	-11261
▁childhood	-11262
▁impression	-11263
▁天上	-11264
▁虚拟	-11265
▁www	-11266
▁以至于	-11267
▁serving	-11268
▁agencies	-11269
▁『	-11270
▁奢	-11271
▁滥	-11272
▁LCQ	-11273
▁outs	-11274
▁schedul	-11275
▁蜡	-11276
▁拿出	-11277
▁策划	-11278
▁自杀	-11279
▁MPF	-11280
oultry	-11281
▁loves	-11282
▁tickets	-11283
▁compensation	-11284
性恋	-11285
▁名为	-11286
▁org	-11287
▁研究者	-11288
▁elev	-11289
ishes	-11290
▁corn	-11291
▁wing	-11292
▁sending	-11293
▁introduction	-11294
▁吴	-11295
▁有力	-11296
▁毁灭	-11297
celer	-11298
▁tissue	-11299
▁focused	-11300
▁instant	-11301
▁container	-11302
▁opposition	-11303
▁柴	-11304
▁颗	-11305
▁brill	-11306
▁incorpor	-11307
▁transportation	-11308
▁遍	-11309
▁ICAC	-11310
▁holy	-11311
▁mand	-11312
▁为止	-11313
▁守则	-11314
▁规律	-11315
▁Estate	-11316
▁抚	-11317
会议	-11318
▁Ge	-11319
▁删除	-11320
▁mud	-11321
▁stir	-11322
▁script	-11323
▁engaged	-11324
98	-11325
▁鲍	-11326
▁威尔	-11327
▁最小	-11328
▁Fac	-11329
▁newly	-11330
▁Manager	-11331
▁蛇	-11332
▁干燥	-11333
▁见面	-11334
▁Braz	-11335
▁finds	-11336
▁kingdom	-11337
▁Vict	-11338
elfare	-11339
▁grain	-11340
▁raising	-11341
▁continuous	-11342
撒冷	-11343
收入	-11344
che	-11345
▁忍受	-11346
委员会	-11347
▁戈	-11348
▁提议	-11349
▁此类	-11350
look	-11351
ograp	-11352
▁bringing	-11353
▁刮	-11354
不了	-11355
八年	-11356
▁一口	-11357
▁康乐	-11358
▁总理	-11359
▁日起	-11360
▁离婚	-11361
▁Chan	-11362
▁yuan	-11363
▁extend	-11364
▁emotion	-11365
▁提示	-11366
▁无数	-11367
▁Test	-11368
▁sleeping	-11369
▁委托	-11370
▁选项	-11371
▁concert	-11372
IG	-11373
▁攀	-11374
▁斑	-11375
质量	-11376
kes	-11377
▁场地	-11378
▁玉米	-11379
▁麦克	-11380
▁federal	-11381
▁伊斯	-11382
▁打印	-11383
▁缓解	-11384
▁Cup	-11385
▁editor	-11386
▁completion	-11387
▁淋	-11388
▁Welfare	-11389
▁转化	-11390
▁Time	-11391
lessly	-11392
▁Brazil	-11393
▁罐	-11394
▁租金	-11395
▁cub	-11396
▁lod	-11397
aneous	-11398
usalem	-11399
▁insect	-11400
▁strike	-11401
▁commonly	-11402
▁活着	-11403
▁silent	-11404
▁declared	-11405
▁谦	-11406
▁发放	-11407
▁对比	-11408
▁珊瑚	-11409
▁Nor	-11410
▁Tour	-11411
ferences	-11412
▁exposure	-11413
▁Fu	-11414
▁口袋	-11415
▁弟兄	-11416
▁气氛	-11417
inating	-11418
▁Jerusalem	-11419
▁membership	-11420
▁浴	-11421
▁消化	-11422
peror	-11423
▁depression	-11424
▁摔	-11425
过来	-11426
ett	-11427
▁信念	-11428
▁编码	-11429
▁行人	-11430
▁部位	-11431
▁Mag	-11432
▁spin	-11433
▁Second	-11434
▁怀孕	-11435
▁黑人	-11436
▁Sal	-11437
▁Fire	-11438
▁lone	-11439
▁captain	-11440
姆斯	-11441
▁禽流	-11442
▁第六	-11443
▁fiber	-11444
▁spark	-11445
▁pleasant	-11446
▁之上	-11447
▁AC	-11448
▁cher	-11449
▁intense	-11450
▁equivalent	-11451
▁fundamental	-11452
▁勒	-11453
▁缝	-11454
是说	-11455
▁Env	-11456
▁neut	-11457
▁耶路撒冷	-11458
▁gifts	-11459
▁yours	-11460
▁duties	-11461
▁发电	-11462
▁Assess	-11463
▁Carrie	-11464
▁全身	-11465
▁去世	-11466
▁平方	-11467
▁禽流感	-11468
▁Immigration	-11469
电脑	-11470
▁保罗	-11471
▁泡沫	-11472
icit	-11473
known	-11474
▁tongue	-11475
▁蒂	-11476
▁奖励	-11477
ecess	-11478
▁seconds	-11479
ader	-11480
onna	-11481
▁Bur	-11482
▁fifth	-11483
▁license	-11484
▁definition	-11485
▁盲	-11486
状况	-11487
▁tank	-11488
▁moves	-11489
etition	-11490
▁labour	-11491
▁laboratory	-11492
▁拨款	-11493
▁耳朵	-11494
stone	-11495
▁entit	-11496
▁manif	-11497
▁distingu	-11498
▁reliable	-11499
▁棕	-11500
▁极为	-11501
▁股东	-11502
▁lean	-11503
▁cargo	-11504
▁influenza	-11505
▁对外	-11506
▁Bas	-11507
agraph	-11508
OT	-11509
▁u	-11510
▁肾	-11511
▁复合	-11512
▁bearing	-11513
▁stomach	-11514
▁consists	-11515
▁焊	-11516
▁苍	-11517
ENT	-11518
▁insert	-11519
▁卵	-11520
▁tie	-11521
▁ease	-11522
▁56	-11523
▁它会	-11524
▁常规	-11525
▁通信	-11526
▁苏格兰	-11527
▁ratio	-11528
▁Father	-11529
▁priority	-11530
▁看作	-11531
▁accommod	-11532
▁analysts	-11533
▁各地	-11534
asters	-11535
▁branc	-11536
▁totally	-11537
▁overcome	-11538
▁stronger	-11539
▁押	-11540
西亚	-11541
▁49	-11542
▁加快	-11543
▁奇迹	-11544
iene	-11545
▁Ret	-11546
▁目前为止	-11547
▁Korean	-11548
▁depending	-11549
▁冻	-11550
▁放到	-11551
angers	-11552
▁harmon	-11553
▁visiting	-11554
▁phenomenon	-11555
14	-11556
▁inev	-11557
▁glory	-11558
▁ingred	-11559
▁acceler	-11560
▁浸	-11561
▁盈	-11562
▁沉默	-11563
▁邮戳	-11564
▁800	-11565
▁flesh	-11566
▁artific	-11567
▁Eff	-11568
▁Zhang	-11569
▁Marine	-11570
▁intellectual	-11571
▁ru	-11572
▁否认	-11573
▁实例	-11574
▁荣耀	-11575
▁黄色	-11576
▁pad	-11577
▁eager	-11578
hua	-11579
▁Ev	-11580
▁午餐	-11581
▁布鲁	-11582
▁爵士	-11583
人民共和国	-11584
▁genetic	-11585
▁短暂	-11586
▁definitely	-11587
OL	-11588
▁丧失	-11589
▁衰退	-11590
▁expenses	-11591
23	-11592
▁逼	-11593
▁总会	-11594
▁说出	-11595
▁过滤	-11596
▁fier	-11597
▁inspect	-11598
▁expansion	-11599
▁applicable	-11600
▁characteristic	-11601
▁注射	-11602
▁另一方面	-11603
▁mouse	-11604
▁measured	-11605
▁significantly	-11606
▁枯	-11607
感器	-11608
▁正当	-11609
▁电池	-11610
▁grat	-11611
▁permit	-11612
▁victims	-11613
▁暂停	-11614
ilty	-11615
hentic	-11616
▁不利	-11617
▁清除	-11618
▁route	-11619
▁criticism	-11620
ria	-11621
▁列出	-11622
▁fever	-11623
▁stayed	-11624
communications	-11625
▁拓	-11626
omic	-11627
▁partnership	-11628
▁墙上	-11629
▁激光	-11630
▁songs	-11631
▁behalf	-11632
▁defense	-11633
▁recover	-11634
iat	-11635
▁传送	-11636
rome	-11637
▁fax	-11638
▁flexible	-11639
▁guidance	-11640
▁installed	-11641
▁hence	-11642
▁pride	-11643
▁fortune	-11644
▁surprising	-11645
▁内在	-11646
▁帝国	-11647
▁微软	-11648
▁管道	-11649
▁stuck	-11650
▁不但	-11651
▁影响力	-11652
rition	-11653
▁ships	-11654
▁copies	-11655
▁顿	-11656
▁共享	-11657
▁发售	-11658
▁breaking	-11659
▁superior	-11660
gl	-11661
▁鼠	-11662
▁一幅	-11663
▁早已	-11664
▁活跃	-11665
▁街上	-11666
▁Atl	-11667
▁guys	-11668
▁blame	-11669
▁accuracy	-11670
▁extension	-11671
▁landscape	-11672
▁怒	-11673
工具	-11674
所以	-11675
eff	-11676
irm	-11677
▁做些	-11678
▁新加	-11679
▁jack	-11680
▁visible	-11681
▁romantic	-11682
▁书籍	-11683
▁清理	-11684
imp	-11685
▁修正	-11686
▁被迫	-11687
▁跳舞	-11688
▁embr	-11689
▁controls	-11690
各样	-11691
钥匙	-11692
▁早就	-11693
▁中华人民共和国	-11694
▁剑	-11695
央行	-11696
▁温和	-11697
▁Span	-11698
信息	-11699
▁忽略	-11700
▁级别	-11701
▁Dig	-11702
▁Jac	-11703
▁阿拉伯	-11704
▁myst	-11705
▁IM	-11706
▁津贴	-11707
▁谷歌	-11708
▁bell	-11709
ounter	-11710
theless	-11711
▁mathem	-11712
▁Lou	-11713
▁fasc	-11714
▁uncle	-11715
▁Ministry	-11716
▁universe	-11717
It	-11718
▁宝贵	-11719
▁cigaret	-11720
▁communicate	-11721
iox	-11722
▁十六	-11723
▁庞大	-11724
▁更是	-11725
▁纳税	-11726
▁新加坡	-11727
▁cotton	-11728
▁visits	-11729
▁withdraw	-11730
▁发达	-11731
▁地理	-11732
▁总监	-11733
elve	-11734
▁Son	-11735
▁overw	-11736
resents	-11737
▁William	-11738
▁excited	-11739
避免	-11740
▁scre	-11741
▁Robert	-11742
▁guilty	-11743
▁人人	-11744
▁护照	-11745
▁探测	-11746
▁angel	-11747
▁anyway	-11748
▁一台	-11749
▁百姓	-11750
earl	-11751
▁Int	-11752
▁Middle	-11753
▁supplies	-11754
▁一遍	-11755
▁文书	-11756
▁股市	-11757
▁这条	-11758
▁unn	-11759
▁Hill	-11760
▁roads	-11761
▁losses	-11762
▁gathered	-11763
▁integrated	-11764
46	-11765
▁缘	-11766
▁buck	-11767
▁exch	-11768
▁Roman	-11769
▁wings	-11770
▁饲	-11771
▁以此	-11772
▁播放	-11773
▁种种	-11774
▁设计师	-11775
▁observ	-11776
▁measurement	-11777
▁饼	-11778
▁1,	-11779
▁周年	-11780
▁死去	-11781
ygen	-11782
▁Ber	-11783
▁Tra	-11784
clock	-11785
arrass	-11786
▁Henry	-11787
▁astron	-11788
▁beneath	-11789
▁chocolate	-11790
▁十字	-11791
▁高效	-11792
roph	-11793
▁eleg	-11794
▁tear	-11795
▁wishes	-11796
歧视	-11797
▁企图	-11798
▁场景	-11799
▁自愿	-11800
▁yeah	-11801
▁席	-11802
▁家具	-11803
▁持久	-11804
▁表情	-11805
lete	-11806
ument	-11807
▁amounts	-11808
▁exciting	-11809
He	-11810
▁惯	-11811
▁sorrow	-11812
▁stored	-11813
▁割	-11814
▁泪	-11815
▁焦虑	-11816
▁隧道	-11817
▁extr	-11818
▁叛	-11819
▁华尔	-11820
▁阁下	-11821
▁集体	-11822
grad	-11823
▁事务局	-11824
iences	-11825
▁Italian	-11826
▁予以	-11827
▁总体	-11828
▁随意	-11829
▁Tem	-11830
▁embarrass	-11831
▁蜜	-11832
cle	-11833
▁公约	-11834
▁spons	-11835
▁昏	-11836
▁妹妹	-11837
▁爱尔兰	-11838
grade	-11839
▁sincere	-11840
▁secretary	-11841
▁幻想	-11842
▁形容	-11843
utch	-11844
▁Pract	-11845
▁coach	-11846
▁papers	-11847
▁exposed	-11848
▁situations	-11849
▁contribution	-11850
▁organisations	-11851
▁传输	-11852
▁回顾	-11853
▁大使	-11854
▁进出	-11855
▁钥匙	-11856
rates	-11857
▁Tsuen	-11858
▁circuit	-11859
方法	-11860
▁66	-11861
▁ok	-11862
▁护士	-11863
enda	-11864
▁之所以	-11865
asury	-11866
eline	-11867
▁province	-11868
▁术语	-11869
▁万美元	-11870
▁puts	-11871
▁Panel	-11872
▁guest	-11873
▁trail	-11874
▁passage	-11875
▁printed	-11876
▁producing	-11877
▁Su	-11878
▁仪器	-11879
▁ate	-11880
▁muscle	-11881
▁perfectly	-11882
encing	-11883
▁立场	-11884
▁美联	-11885
▁Imp	-11886
▁commerce	-11887
▁脉	-11888
uzz	-11889
▁全新	-11890
▁港币	-11891
cont	-11892
iders	-11893
▁Care	-11894
iology	-11895
▁loans	-11896
▁limits	-11897
▁northern	-11898
▁regarded	-11899
高兴	-11900
▁绝望	-11901
▁Tuen	-11902
▁euro	-11903
▁fluid	-11904
▁demands	-11905
▁nevertheless	-11906
lim	-11907
▁Treat	-11908
▁hyper	-11909
▁recyc	-11910
▁survive	-11911
▁description	-11912
▁HT	-11913
▁国务	-11914
▁救援	-11915
▁永恒	-11916
▁雇佣	-11917
▁鼻子	-11918
▁小男孩	-11919
ook	-11920
▁fate	-11921
▁readers	-11922
▁unknown	-11923
▁uncertain	-11924
▁鸡蛋	-11925
▁behaviour	-11926
▁conservation	-11927
80	-11928
▁纷	-11929
科学	-11930
▁男女	-11931
▁约瑟	-11932
etime	-11933
▁Open	-11934
▁loose	-11935
▁昂贵	-11936
uter	-11937
▁Tax	-11938
▁ham	-11939
▁tack	-11940
▁fract	-11941
▁asleep	-11942
▁naturally	-11943
▁井	-11944
▁契	-11945
▁东南	-11946
▁形态	-11947
▁hem	-11948
▁Tang	-11949
▁diagnosis	-11950
分析	-11951
▁je	-11952
▁无关	-11953
▁热爱	-11954
inent	-11955
▁Face	-11956
▁gene	-11957
stream	-11958
▁somewhat	-11959
▁permission	-11960
▁两只	-11961
eous	-11962
omas	-11963
▁SAR	-11964
▁ske	-11965
▁大学生	-11966
▁stocks	-11967
▁53	-11968
▁人权	-11969
▁低于	-11970
▁拿到	-11971
▁bitter	-11972
ilateral	-11973
来说	-11974
▁新生	-11975
▁Book	-11976
▁Sports	-11977
▁autumn	-11978
▁tourism	-11979
事会	-11980
啤酒	-11981
▁可见	-11982
▁手续	-11983
▁Sai	-11984
▁Greek	-11985
▁conserv	-11986
▁映	-11987
▁严肃	-11988
▁伸出	-11989
▁千万	-11990
▁很小	-11991
▁留意	-11992
▁Bec	-11993
itter	-11994
▁tends	-11995
▁temple	-11996
▁abstract	-11997
▁somewhere	-11998
▁Star	-11999
▁grab	-12000
▁flour	-12001
设备	-12002
aft	-12003
azz	-12004
▁校园	-12005
▁笔记	-12006
utory	-12007
▁pilot	-12008
▁parameters	-12009
▁represents	-12010
oes	-12011
▁为期	-12012
▁升级	-12013
▁vacation	-12014
▁膝	-12015
▁即可	-12016
▁角落	-12017
▁complicated	-12018
mm	-12019
▁57	-12020
▁宣称	-12021
▁试着	-12022
▁abund	-12023
▁answers	-12024
▁评审	-12025
▁tab	-12026
▁duck	-12027
▁liked	-12028
▁score	-12029
▁update	-12030
▁雌	-12031
▁形势	-12032
▁构造	-12033
▁点击	-12034
▁读书	-12035
illa	-12036
▁电话号码	-12037
▁spare	-12038
▁翅	-12039
▁事先	-12040
▁六年	-12041
▁集邮	-12042
aired	-12043
▁evol	-12044
▁sake	-12045
▁choices	-12046
▁anywhere	-12047
▁peaceful	-12048
▁generated	-12049
▁sustainable	-12050
意识	-12051
▁一杯	-12052
▁必需	-12053
▁抵押	-12054
▁税收	-12055
▁微生物	-12056
▁label	-12057
▁weakness	-12058
▁扑	-12059
▁好奇	-12060
▁泰国	-12061
itud	-12062
▁撕	-12063
▁炉	-12064
▁处在	-12065
▁帮忙	-12066
▁明亮	-12067
▁CEO	-12068
▁Hol	-12069
▁tact	-12070
▁桑	-12071
▁光明	-12072
▁抵达	-12073
▁本周	-12074
quis	-12075
▁sty	-12076
▁category	-12077
▁explanation	-12078
▁超出	-12079
▁基金会	-12080
using	-12081
▁desper	-12082
▁stimul	-12083
▁cooking	-12084
▁演奏	-12085
▁employed	-12086
▁exception	-12087
13	-12088
报告	-12089
▁TO	-12090
▁Equ	-12091
usions	-12092
▁artist	-12093
▁emotions	-12094
▁numerous	-12095
▁强迫	-12096
▁志愿	-12097
▁扩张	-12098
▁遇见	-12099
aved	-12100
▁证明书	-12101
▁refers	-12102
▁stupid	-12103
▁theore	-12104
▁imported	-12105
▁designated	-12106
▁Afghanistan	-12107
▁佣	-12108
▁烹	-12109
▁袋	-12110
mar	-12111
▁同步	-12112
▁确信	-12113
▁gap	-12114
▁传感器	-12115
▁burden	-12116
▁incred	-12117
▁refuse	-12118
▁entertainment	-12119
▁participation	-12120
▁丹尼	-12121
▁讯息	-12122
▁movies	-12123
ographic	-12124
▁experimental	-12125
▁倘	-12126
▁厘	-12127
abb	-12128
▁一人	-12129
▁奥林	-12130
▁申报	-12131
▁舞台	-12132
▁clar	-12133
▁latter	-12134
▁bacteria	-12135
▁branches	-12136
▁treasure	-12137
▁迄	-12138
▁碰到	-12139
▁pharm	-12140
▁democracy	-12141
▁嫁	-12142
▁敢	-12143
▁存款	-12144
▁基本上	-12145
▁砍	-12146
▁清洗	-12147
▁窗口	-12148
▁缺点	-12149
▁Det	-12150
▁心脏病	-12151
inger	-12152
▁Alex	-12153
▁spiritual	-12154
▁范畴	-12155
fect	-12156
habil	-12157
▁tent	-12158
▁leather	-12159
▁墓	-12160
▁Club	-12161
▁中国政府	-12162
▁priest	-12163
▁implemented	-12164
自己	-12165
▁一两	-12166
▁搜寻	-12167
▁杰出	-12168
▁荣誉	-12169
▁迄今	-12170
▁Haw	-12171
▁helpful	-12172
▁吐	-12173
▁拘	-12174
程度	-12175
▁温柔	-12176
ATION	-12177
▁advoc	-12178
▁hoped	-12179
▁circle	-12180
▁indicated	-12181
▁怕	-12182
▁CP	-12183
▁股份	-12184
▁醒来	-12185
▁phr	-12186
▁pipe	-12187
▁analyzed	-12188
▁夏季	-12189
liament	-12190
▁warned	-12191
▁amazing	-12192
40	-12193
▁旗	-12194
▁放置	-12195
▁暴露	-12196
quire	-12197
▁tips	-12198
▁Hospital	-12199
▁emerging	-12200
▁paragraph	-12201
124	-12202
▁命名	-12203
▁报价	-12204
▁Proper	-12205
▁consequences	-12206
▁对付	-12207
▁收取	-12208
▁明智	-12209
▁Shui	-12210
▁Foreign	-12211
▁一笔	-12212
▁写道	-12213
▁Rad	-12214
▁zero	-12215
▁angle	-12216
▁Personal	-12217
▁旺	-12218
▁寒冷	-12219
▁装备	-12220
apore	-12221
▁Eliz	-12222
▁Tung	-12223
▁perce	-12224
▁压缩	-12225
▁穷人	-12226
▁rum	-12227
▁Jane	-12228
▁lovely	-12229
▁rarely	-12230
▁坟	-12231
▁峰	-12232
han	-12233
▁尽快	-12234
▁年前	-12235
▁意志	-12236
rets	-12237
▁rect	-12238
▁silk	-12239
▁admit	-12240
▁fears	-12241
▁composition	-12242
MB	-12243
▁煮	-12244
▁欲望	-12245
▁邪恶	-12246
▁伊斯兰	-12247
ixture	-12248
▁仲	-12249
▁胎	-12250
▁亲自	-12251
▁从中	-12252
▁巴勒	-12253
▁五十	-12254
▁推销	-12255
rous	-12256
▁ink	-12257
▁mos	-12258
inter	-12259
▁Human	-12260
▁摸	-12261
▁润	-12262
▁黎	-12263
▁冷却	-12264
▁疑问	-12265
▁见证	-12266
▁FOR	-12267
igned	-12268
▁With	-12269
▁sink	-12270
asting	-12271
hemical	-12272
▁approx	-12273
▁implic	-12274
FC	-12275
计划	-12276
▁原料	-12277
▁早餐	-12278
▁沙漠	-12279
▁港岛	-12280
acco	-12281
▁nit	-12282
▁moments	-12283
▁economies	-12284
▁philosophy	-12285
▁installation	-12286
▁人家	-12287
▁弹性	-12288
▁涵盖	-12289
▁政府部门	-12290
▁leisure	-12291
▁restaurants	-12292
oom	-12293
emic	-12294
▁193	-12295
▁symp	-12296
▁eligible	-12297
▁comparison	-12298
▁奴隶	-12299
▁星期四	-12300
▁Consult	-12301
▁advised	-12302
▁vessels	-12303
▁contribute	-12304
21	-12305
▁Ba	-12306
▁模仿	-12307
▁Roy	-12308
▁统计数	-12309
▁吵	-12310
植物	-12311
▁简介	-12312
ador	-12313
▁oppon	-12314
▁outer	-12315
▁hoping	-12316
▁bedroom	-12317
▁claimed	-12318
▁Assessment	-12319
▁僵	-12320
▁君	-12321
▁廉署	-12322
▁舞蹈	-12323
berg	-12324
orne	-12325
rosc	-12326
▁mac	-12327
pling	-12328
▁habits	-12329
▁presents	-12330
▁止	-12331
▁入口	-12332
▁召开	-12333
▁犹太人	-12334
▁Greece	-12335
▁刷	-12336
软件	-12337
▁不让	-12338
▁可否	-12339
▁响应	-12340
▁lung	-12341
▁toxic	-12342
▁metres	-12343
▁enjoyed	-12344
▁transactions	-12345
▁日前	-12346
▁pale	-12347
▁poem	-12348
▁electron	-12349
ST	-12350
▁笼	-12351
▁先前	-12352
andom	-12353
▁Arch	-12354
▁Enter	-12355
▁argue	-12356
▁domin	-12357
▁lessons	-12358
▁shouldn	-12359
▁covering	-12360
▁profound	-12361
▁religion	-12362
aza	-12363
▁世上	-12364
▁宪法	-12365
▁排除	-12366
▁职务	-12367
▁轻易	-12368
▁迫使	-12369
▁examine	-12370
▁Singapore	-12371
▁furniture	-12372
▁representatives	-12373
▁匆	-12374
▁以致	-12375
▁南方	-12376
▁用以	-12377
▁肿瘤	-12378
▁道歉	-12379
▁Sus	-12380
oples	-12381
▁gray	-12382
▁pron	-12383
▁vert	-12384
▁Stamps	-12385
▁Regional	-12386
▁entrance	-12387
▁automatic	-12388
▁politicians	-12389
▁嵌	-12390
▁光线	-12391
▁公屋	-12392
▁签名	-12393
▁血管	-12394
▁运营	-12395
enny	-12396
▁卫生署	-12397
▁Frank	-12398
▁authentic	-12399
▁respective	-12400
▁筛	-12401
eem	-12402
lla	-12403
▁一时	-12404
▁下次	-12405
▁伤心	-12406
▁伴随	-12407
▁创业	-12408
▁拥抱	-12409
▁120	-12410
▁brave	-12411
▁recommended	-12412
▁transmission	-12413
asts	-12414
▁sod	-12415
▁destroyed	-12416
▁ST	-12417
▁乐意	-12418
▁毕业生	-12419
iversary	-12420
▁drivers	-12421
▁mortgage	-12422
▁organized	-12423
▁琼	-12424
▁逮	-12425
▁铝	-12426
▁Dyn	-12427
▁abuse	-12428
▁Victor	-12429
▁benefic	-12430
▁parking	-12431
▁chairman	-12432
▁诗人	-12433
▁起诉	-12434
abet	-12435
▁mild	-12436
▁Other	-12437
▁consol	-12438
▁networks	-12439
▁务	-12440
▁硫	-12441
▁物料	-12442
▁compass	-12443
▁resulting	-12444
▁兽	-12445
▁Os	-12446
▁Sl	-12447
▁只好	-12448
▁困扰	-12449
▁活性	-12450
abeth	-12451
▁doors	-12452
▁molec	-12453
▁proportion	-12454
AA	-12455
▁晚餐	-12456
▁营运	-12457
些时候	-12458
▁Kim	-12459
▁alert	-12460
▁absence	-12461
▁Province	-12462
▁contrary	-12463
▁原谅	-12464
▁场合	-12465
▁那边	-12466
mate	-12467
▁惹	-12468
典礼	-12469
节目	-12470
▁争取	-12471
▁偶然	-12472
▁决议	-12473
▁审计	-12474
▁spell	-12475
reprene	-12476
▁suspect	-12477
▁architecture	-12478
▁小女	-12479
▁该项	-12480
▁Ven	-12481
▁Order	-12482
▁聆	-12483
▁太多	-12484
▁ric	-12485
▁Class	-12486
UN	-12487
▁仓	-12488
▁瘦	-12489
You	-12490
▁规管	-12491
▁身分	-12492
▁cra	-12493
▁从来不	-12494
heast	-12495
▁Pers	-12496
▁peak	-12497
▁privacy	-12498
▁strongly	-12499
以为	-12500
▁按钮	-12501
oper	-12502
▁genes	-12503
▁regime	-12504
▁stations	-12505
Wh	-12506
情况	-12507
▁原本	-12508
▁核证	-12509
▁hal	-12510
▁strip	-12511
▁unexp	-12512
▁buried	-12513
▁apparently	-12514
▁赖	-12515
▁主办	-12516
▁土耳	-12517
▁崩溃	-12518
▁支票	-12519
▁电动	-12520
▁除外	-12521
▁董事会	-12522
▁Amend	-12523
▁复活	-12524
▁账户	-12525
▁有利于	-12526
▁marks	-12527
▁Market	-12528
▁outcome	-12529
▁revenue	-12530
▁replaced	-12531
▁笨	-12532
之间	-12533
▁Av	-12534
▁接待	-12535
▁海滩	-12536
▁混凝	-12537
▁发现自己	-12538
acious	-12539
▁threw	-12540
▁complain	-12541
▁celebrate	-12542
▁scheduled	-12543
▁船长	-12544
▁stab	-12545
▁flash	-12546
▁myster	-12547
▁Convention	-12548
25	-12549
▁此事	-12550
▁至关	-12551
orse	-12552
▁gal	-12553
mates	-12554
▁savings	-12555
▁regardless	-12556
OC	-12557
▁梁	-12558
▁器官	-12559
▁康复	-12560
▁损坏	-12561
▁波动	-12562
▁Chi	-12563
▁土耳其	-12564
▁英文版	-12565
▁Ping	-12566
▁drew	-12567
▁synt	-12568
▁oxygen	-12569
▁therapy	-12570
▁Registry	-12571
ye	-12572
▁束	-12573
▁审核	-12574
▁氧化	-12575
▁真诚	-12576
irty	-12577
izer	-12578
uting	-12579
▁shops	-12580
▁twelve	-12581
▁imports	-12582
▁contracts	-12583
▁融合	-12584
quiry	-12585
▁crew	-12586
▁refr	-12587
▁池	-12588
▁买卖	-12589
▁层面	-12590
▁真相	-12591
▁脆弱	-12592
▁迎接	-12593
▁预约	-12594
▁impr	-12595
▁Regulation	-12596
▁一眼	-12597
▁单一	-12598
▁姐姐	-12599
▁带给	-12600
▁无需	-12601
▁签订	-12602
▁诱惑	-12603
▁They	-12604
▁hors	-12605
▁requests	-12606
▁discipline	-12607
▁Jo	-12608
▁全体	-12609
▁啤酒	-12610
▁裁判	-12611
west	-12612
▁reporting	-12613
▁瞧	-12614
▁困境	-12615
▁恶化	-12616
▁走过	-12617
124;	-12618
▁odd	-12619
▁pir	-12620
▁Well	-12621
▁disag	-12622
▁girlf	-12623
▁&#124;	-12624
▁profile	-12625
▁evaluate	-12626
▁Yu	-12627
▁外表	-12628
▁gaz	-12629
asant	-12630
▁Step	-12631
▁taxes	-12632
▁荃	-12633
▁船上	-12634
zhen	-12635
father	-12636
▁minds	-12637
▁alleged	-12638
▁applying	-12639
▁measuring	-12640
▁remembered	-12641
▁炎	-12642
▁上学	-12643
▁含义	-12644
▁屯门	-12645
▁放大	-12646
▁更换	-12647
▁que	-12648
▁Prin	-12649
▁relie	-12650
▁shame	-12651
▁Master	-12652
▁enforcement	-12653
▁个体	-12654
▁款项	-12655
▁河流	-12656
▁贵方	-12657
▁遥远	-12658
▁assume	-12659
▁lawyer	-12660
▁receipt	-12661
▁一封	-12662
▁主张	-12663
▁激发	-12664
▁oral	-12665
▁vary	-12666
▁concentration	-12667
▁孟	-12668
▁Sar	-12669
▁社会主义	-12670
▁combat	-12671
▁arrival	-12672
▁worldwide	-12673
mn	-12674
▁泛	-12675
▁两名	-12676
▁每一	-12677
▁assembly	-12678
▁employers	-12679
▁祂	-12680
▁健身	-12681
▁当今	-12682
▁邮品	-12683
▁Lau	-12684
▁Tim	-12685
▁lob	-12686
▁Ming	-12687
▁aims	-12688
▁touched	-12689
▁Agreement	-12690
▁copyright	-12691
19	-12692
▁凉	-12693
一代	-12694
▁95	-12695
▁干预	-12696
▁同一个	-12697
urable	-12698
▁舍	-12699
▁一双	-12700
▁核准	-12701
▁nic	-12702
▁settled	-12703
EE	-12704
▁竭	-12705
▁羽毛	-12706
inery	-12707
▁equally	-12708
▁killing	-12709
▁poultry	-12710
▁extraord	-12711
▁寂	-12712
▁各类	-12713
▁地带	-12714
▁焦点	-12715
▁理性	-12716
▁逐步	-12717
▁films	-12718
▁情报	-12719
urning	-12720
▁loyal	-12721
▁brilliant	-12722
▁unexpected	-12723
▁兑	-12724
▁轰	-12725
▁颤	-12726
▁亲密	-12727
▁现代化	-12728
▁Mother	-12729
▁族	-12730
oky	-12731
▁后者	-12732
▁武装	-12733
▁气味	-12734
▁华尔街	-12735
▁至关重要	-12736
▁stake	-12737
▁define	-12738
▁Elizabeth	-12739
▁execution	-12740
▁satisfaction	-12741
▁裤	-12742
▁eg	-12743
▁看待	-12744
▁退出	-12745
▁chances	-12746
▁Exhibition	-12747
ona	-12748
▁家禽	-12749
▁投标	-12750
▁新兴	-12751
▁竟然	-12752
▁pled	-12753
▁scat	-12754
▁Observ	-12755
▁stated	-12756
▁compare	-12757
▁percentage	-12758
▁描绘	-12759
▁教训	-12760
▁fraud	-12761
▁museum	-12762
▁发育	-12763
▁改造	-12764
▁鉴于	-12765
avel	-12766
▁Ill	-12767
▁enl	-12768
▁怎么办	-12769
▁tape	-12770
▁组成部分	-12771
▁wooden	-12772
▁discovery	-12773
▁sacrifice	-12774
▁径	-12775
▁explo	-12776
▁总裁	-12777
▁恰当	-12778
▁水中	-12779
▁rip	-12780
IR	-12781
▁肠	-12782
▁成人	-12783
▁起到	-12784
yard	-12785
▁停车场	-12786
▁Import	-12787
▁attach	-12788
▁targets	-12789
▁reaching	-12790
▁赞美	-12791
illy	-12792
pled	-12793
▁GDP	-12794
▁rac	-12795
▁Cheng	-12796
▁royal	-12797
瞬间	-12798
▁充足	-12799
▁加热	-12800
▁画面	-12801
▁unb	-12802
▁Traff	-12803
▁asset	-12804
▁wheat	-12805
▁compound	-12806
▁universal	-12807
ss	-12808
▁兔	-12809
▁厉	-12810
▁belt	-12811
▁sail	-12812
▁pursue	-12813
▁钓	-12814
▁学科	-12815
▁正好	-12816
▁Fam	-12817
▁混凝土	-12818
▁affection	-12819
yd	-12820
殖民	-12821
▁回归	-12822
▁近期	-12823
▁WTO	-12824
▁cuts	-12825
▁Franc	-12826
itative	-12827
▁worship	-12828
▁originally	-12829
阶级	-12830
项目	-12831
▁机遇	-12832
▁代表团	-12833
untary	-12834
▁exists	-12835
▁enormous	-12836
▁炮	-12837
▁分散	-12838
▁大海	-12839
▁容器	-12840
esty	-12841
▁random	-12842
▁specif	-12843
▁Clinton	-12844
▁anticip	-12845
▁hanging	-12846
▁graduate	-12847
▁involves	-12848
ervoir	-12849
mother	-12850
▁Prince	-12851
▁lonely	-12852
▁wicked	-12853
uke	-12854
▁分开	-12855
▁大门	-12856
▁奥斯	-12857
▁抑郁	-12858
▁曲线	-12859
▁紧紧	-12860
▁2011	-12861
▁Ship	-12862
▁crucial	-12863
BM	-12864
▁祭司	-12865
▁等级	-12866
▁Sir	-12867
▁cock	-12868
▁unre	-12869
▁Medic	-12870
谴责	-12871
▁比尔	-12872
▁TRA	-12873
▁dancing	-12874
▁virtual	-12875
▁destination	-12876
▁translation	-12877
och	-12878
▁加州	-12879
▁反而	-12880
▁烦恼	-12881
▁Rev	-12882
▁Vir	-12883
iating	-12884
ieties	-12885
▁grate	-12886
▁enemies	-12887
▁mothers	-12888
▁sectors	-12889
▁classroom	-12890
▁拔	-12891
▁萧	-12892
研究	-12893
▁东部	-12894
▁卓越	-12895
tage	-12896
▁proc	-12897
▁Mexico	-12898
▁gently	-12899
16	-12900
▁悠	-12901
▁喜悦	-12902
▁样品	-12903
▁这点	-12904
▁竞争力	-12905
▁adds	-12906
▁asks	-12907
▁writ	-12908
▁distr	-12909
▁harvest	-12910
▁passenger	-12911
▁protected	-12912
▁九年	-12913
▁当事	-12914
▁签发	-12915
▁质疑	-12916
▁问道	-12917
irit	-12918
irts	-12919
▁Liu	-12920
▁发动机	-12921
▁outdo	-12922
▁righteous	-12923
▁易于	-12924
▁道理	-12925
▁rhy	-12926
▁奥林匹	-12927
▁Light	-12928
▁惠	-12929
▁58	-12930
▁两天	-12931
▁冷静	-12932
▁昨晚	-12933
▁珍贵	-12934
▁荃湾	-12935
cers	-12936
▁Wai	-12937
▁holidays	-12938
▁informed	-12939
▁premises	-12940
OD	-12941
▁屋顶	-12942
▁百万	-12943
▁suggestions	-12944
尔德	-12945
斯林	-12946
▁部件	-12947
dong	-12948
▁dict	-12949
▁Princ	-12950
▁murder	-12951
▁density	-12952
▁festival	-12953
▁encouraged	-12954
不住	-12955
制度	-12956
rich	-12957
with	-12958
▁emp	-12959
▁星期二	-12960
▁葡萄酒	-12961
▁chose	-12962
▁散步	-12963
▁权威	-12964
acles	-12965
orders	-12966
▁arbit	-12967
▁domain	-12968
lu	-12969
▁不见	-12970
▁250	-12971
▁Treasury	-12972
oil	-12973
▁严厉	-12974
▁聊天	-12975
▁自豪	-12976
▁Yes	-12977
▁sai	-12978
▁tow	-12979
icial	-12980
box	-12981
oly	-12982
▁该国	-12983
▁部署	-12984
▁迈克尔	-12985
▁bold	-12986
▁buff	-12987
alysis	-12988
▁didnt	-12989
▁downt	-12990
▁engage	-12991
▁Medical	-12992
▁filling	-12993
▁supplement	-12994
▁Construction	-12995
▁罕	-12996
▁全港	-12997
▁谎	-12998
▁ug	-12999
▁较为	-13000
▁hed	-13001
angle	-13002
chron	-13003
▁金融危机	-13004
quarters	-13005
▁creates	-13006
▁signals	-13007
▁memories	-13008
议会	-13009
▁59	-13010
▁忠诚	-13011
▁挑选	-13012
▁apolog	-13013
▁customs	-13014
▁entering	-13015
▁overwhel	-13016
▁chemicals	-13017
▁渡	-13018
▁祷	-13019
▁顽	-13020
之为	-13021
▁接口	-13022
▁迷人	-13023
▁露出	-13024
▁致力于	-13025
▁funny	-13026
▁union	-13027
▁kilomet	-13028
▁Insurance	-13029
▁relatives	-13030
▁substance	-13031
17	-13032
▁辖	-13033
▁NT	-13034
▁一处	-13035
▁nest	-13036
▁painful	-13037
▁generate	-13038
▁prescrib	-13039
▁forgotten	-13040
▁幅	-13041
▁闹	-13042
▁直至	-13043
roat	-13044
▁Camp	-13045
▁panel	-13046
▁滴	-13047
交通	-13048
如何	-13049
sen	-13050
▁东方	-13051
▁步行	-13052
▁酒精	-13053
host	-13054
▁近年来	-13055
▁vulner	-13056
▁postmark	-13057
▁operators	-13058
▁做成	-13059
▁很长	-13060
▁得知	-13061
▁手臂	-13062
lation	-13063
▁chronic	-13064
▁fathers	-13065
▁喉	-13066
▁多元	-13067
▁字母	-13068
▁有钱	-13069
anta	-13070
▁gym	-13071
▁申请表	-13072
achel	-13073
adays	-13074
ician	-13075
▁dent	-13076
▁feas	-13077
▁acute	-13078
▁displayed	-13079
▁integrity	-13080
py	-13081
▁为主	-13082
▁储蓄	-13083
▁施工	-13084
▁词汇	-13085
▁diff	-13086
▁lion	-13087
▁Products	-13088
▁represented	-13089
▁十九	-13090
▁热量	-13091
▁钻石	-13092
▁错过	-13093
18	-13094
▁矮	-13095
gence	-13096
▁1995	-13097
▁pink	-13098
▁auction	-13099
▁悄	-13100
▁讽	-13101
▁天主	-13102
▁tied	-13103
▁航空公司	-13104
▁publish	-13105
▁basically	-13106
▁挽	-13107
▁克林	-13108
▁正面	-13109
▁Gen	-13110
▁lets	-13111
▁unlikely	-13112
▁compliance	-13113
▁之类	-13114
▁惊奇	-13115
▁抵抗	-13116
▁深圳	-13117
▁reck	-13118
▁beings	-13119
▁fairly	-13120
▁毒品	-13121
▁生理	-13122
▁lip	-13123
▁受害者	-13124
▁太平洋	-13125
amination	-13126
▁橄	-13127
▁殖民	-13128
▁fewer	-13129
▁divers	-13130
▁simulation	-13131
▁缅	-13132
200	-13133
▁整理	-13134
iscal	-13135
▁neur	-13136
▁blocks	-13137
ificates	-13138
cr	-13139
▁GM	-13140
▁旅程	-13141
▁越南	-13142
▁长远	-13143
▁保险公司	-13144
▁steady	-13145
▁artificial	-13146
▁仁	-13147
▁月球	-13148
▁Dev	-13149
▁tort	-13150
▁Under	-13151
▁Spanish	-13152
▁诞	-13153
▁减肥	-13154
▁引擎	-13155
▁答覆	-13156
▁网址	-13157
gers	-13158
▁bride	-13159
▁preced	-13160
▁发起	-13161
▁歌曲	-13162
▁疗效	-13163
▁罗斯	-13164
ferent	-13165
▁trained	-13166
▁complaint	-13167
▁biological	-13168
▁Set	-13169
▁六个月	-13170
▁支持者	-13171
▁scan	-13172
▁turb	-13173
▁burst	-13174
▁couples	-13175
▁bankrupt	-13176
▁instruments	-13177
▁铅	-13178
▁入侵	-13179
▁实质	-13180
▁插入	-13181
▁编制	-13182
▁通货	-13183
▁附属	-13184
就是说	-13185
▁genu	-13186
▁Issue	-13187
▁brush	-13188
▁prohib	-13189
▁discour	-13190
▁entreprene	-13191
▁受益	-13192
▁学到	-13193
▁接到	-13194
▁百分	-13195
▁邮局	-13196
arer	-13197
▁rod	-13198
▁seats	-13199
▁division	-13200
▁hardware	-13201
▁反复	-13202
▁治理	-13203
▁HIV	-13204
▁insist	-13205
▁modified	-13206
▁AD	-13207
▁一代	-13208
▁预先	-13209
▁颗粒	-13210
▁Who	-13211
asion	-13212
▁Hand	-13213
▁inhab	-13214
▁upset	-13215
▁defendant	-13216
▁颈	-13217
▁不行	-13218
▁橄榄	-13219
▁Pop	-13220
owing	-13221
▁satellite	-13222
▁秒	-13223
参阅	-13224
▁月亮	-13225
▁言论	-13226
ulum	-13227
▁请参阅	-13228
▁welf	-13229
▁expectations	-13230
▁高层	-13231
iece	-13232
▁Account	-13233
▁dedicated	-13234
▁俩	-13235
▁摧	-13236
▁PS	-13237
▁延伸	-13238
▁无所	-13239
▁薪水	-13240
▁Pay	-13241
▁rej	-13242
▁armed	-13243
▁convey	-13244
▁invite	-13245
▁Cle	-13246
▁Found	-13247
▁fruits	-13248
▁venture	-13249
▁脖	-13250
▁ah	-13251
▁优雅	-13252
▁实体	-13253
▁谴责	-13254
▁youre	-13255
▁Deputy	-13256
▁welfare	-13257
▁挫	-13258
▁周一	-13259
▁Shenzhen	-13260
▁necessarily	-13261
▁氧	-13262
▁钉	-13263
▁不变	-13264
▁变形	-13265
▁户外	-13266
▁融资	-13267
▁Facebook	-13268
▁一棵	-13269
▁过渡	-13270
▁风景	-13271
outs	-13272
▁Cur	-13273
▁胳	-13274
▁东北	-13275
▁眼泪	-13276
▁tob	-13277
▁Vice	-13278
▁dare	-13279
▁pushed	-13280
hi	-13281
▁不合	-13282
▁大胆	-13283
▁白天	-13284
▁Wing	-13285
▁chop	-13286
▁Guide	-13287
▁Harbour	-13288
ta	-13289
▁纬	-13290
▁参赛	-13291
▁这笔	-13292
▁饭店	-13293
umes	-13294
master	-13295
▁Licence	-13296
▁contest	-13297
▁溜	-13298
对手	-13299
秩序	-13300
▁城里	-13301
▁夫妻	-13302
▁穆斯林	-13303
▁Viet	-13304
ilation	-13305
aughters	-13306
▁reserve	-13307
一年	-13308
▁八年	-13309
▁反射	-13310
▁效益	-13311
▁模块	-13312
▁美味	-13313
▁讽刺	-13314
▁gro	-13315
▁myth	-13316
▁竞争对手	-13317
atical	-13318
▁Engineering	-13319
时代	-13320
ias	-13321
▁手工	-13322
▁Chic	-13323
▁cake	-13324
▁horm	-13325
▁二零零六年	-13326
▁expend	-13327
▁filter	-13328
▁organised	-13329
CC	-13330
▁主体	-13331
▁言语	-13332
▁当事人	-13333
▁amid	-13334
▁bags	-13335
▁tech	-13336
▁campus	-13337
▁damaged	-13338
▁facility	-13339
▁elsewhere	-13340
▁骚	-13341
▁齿	-13342
件事	-13343
▁毫米	-13344
▁指挥官	-13345
▁高尔夫	-13346
ounce	-13347
▁Tsui	-13348
▁lend	-13349
▁prize	-13350
▁tropical	-13351
▁孕	-13352
▁赎	-13353
▁负面	-13354
▁二氧化	-13355
▁extensive	-13356
sis	-13357
▁团结	-13358
▁祷告	-13359
▁研究所	-13360
▁Film	-13361
▁rely	-13362
▁steam	-13363
▁diamond	-13364
▁exports	-13365
▁Guangdong	-13366
▁域	-13367
▁耕	-13368
▁收藏	-13369
▁Han	-13370
itals	-13371
organ	-13372
▁rush	-13373
▁lifetime	-13374
▁Electronic	-13375
habilitation	-13376
▁皱	-13377
兰克	-13378
▁学位	-13379
▁深度	-13380
▁突破	-13381
itan	-13382
▁Doc	-13383
estyle	-13384
▁Spain	-13385
▁initiatives	-13386
▁抹	-13387
▁锦	-13388
▁监控	-13389
▁阐述	-13390
athan	-13391
▁quit	-13392
▁ster	-13393
▁stip	-13394
▁prost	-13395
▁imposed	-13396
▁statements	-13397
▁1.	-13398
▁层次	-13399
▁故意	-13400
▁炸弹	-13401
▁大自然	-13402
SS	-13403
▁产量	-13404
▁知名	-13405
▁集成	-13406
▁化验	-13407
▁火星	-13408
▁配偶	-13409
▁Lear	-13410
▁particles	-13411
▁universities	-13412
nex	-13413
▁CL	-13414
▁IV	-13415
▁Of	-13416
▁体制	-13417
▁雅各	-13418
▁700	-13419
▁hasn	-13420
▁hosp	-13421
weight	-13422
▁Palest	-13423
▁digest	-13424
▁Richard	-13425
▁decrease	-13426
▁positions	-13427
▁刊物	-13428
▁译文	-13429
▁贪污	-13430
▁负责人	-13431
▁tables	-13432
▁Traffic	-13433
▁accidents	-13434
▁宁静	-13435
▁Prem	-13436
▁Daniel	-13437
▁迦	-13438
小时	-13439
▁一番	-13440
▁营销	-13441
▁太阳能	-13442
▁fiscal	-13443
▁potato	-13444
▁pounds	-13445
▁囚	-13446
▁单词	-13447
▁忽然	-13448
▁批出	-13449
▁日常生活	-13450
▁Hotel	-13451
▁railway	-13452
▁Observatory	-13453
IF	-13454
▁先知	-13455
▁包裹	-13456
▁确切	-13457
▁符号	-13458
▁节点	-13459
▁Den	-13460
▁Jean	-13461
▁greet	-13462
▁equity	-13463
▁genuine	-13464
uch	-13465
▁那条	-13466
▁风暴	-13467
▁gang	-13468
▁oneself	-13469
▁依照	-13470
▁收获	-13471
▁长久	-13472
▁forb	-13473
▁reader	-13474
▁wholes	-13475
▁violent	-13476
▁擅	-13477
马斯	-13478
▁密封	-13479
▁脑袋	-13480
▁认同	-13481
▁wore	-13482
▁managing	-13483
飞机	-13484
add	-13485
▁仲裁	-13486
▁前提	-13487
▁局部	-13488
▁UGC	-13489
▁外国人	-13490
▁retirement	-13491
▁串	-13492
学位	-13493
▁中期	-13494
▁刊登	-13495
▁幼儿	-13496
▁昆虫	-13497
▁等候	-13498
omin	-13499
▁基础设施	-13500
▁indicates	-13501
▁熔	-13502
▁一方	-13503
▁富裕	-13504
▁眼中	-13505
▁bonds	-13506
▁驶	-13507
▁Ng	-13508
▁火箭	-13509
▁路径	-13510
▁称之为	-13511
agger	-13512
jiang	-13513
▁Power	-13514
▁葵	-13515
irl	-13516
▁68	-13517
▁上网	-13518
▁诸如	-13519
▁这事	-13520
▁Cant	-13521
▁missed	-13522
▁cancell	-13523
▁manifest	-13524
不上	-13525
oll	-13526
▁卡车	-13527
▁原文	-13528
▁实习	-13529
▁Rem	-13530
▁几分钟	-13531
▁同性恋	-13532
▁thats	-13533
▁hungry	-13534
▁eastern	-13535
▁Relations	-13536
▁柱	-13537
▁行走	-13538
▁随机	-13539
▁难过	-13540
▁transition	-13541
pm	-13542
▁不像	-13543
▁如欲	-13544
▁整天	-13545
▁sew	-13546
▁juice	-13547
▁laser	-13548
▁boundary	-13549
▁detection	-13550
▁girlfriend	-13551
▁strategies	-13552
▁achievements	-13553
册子	-13554
▁任意	-13555
▁局面	-13556
▁当天	-13557
▁法规	-13558
▁jail	-13559
▁drove	-13560
▁drinks	-13561
▁scholars	-13562
▁硅	-13563
▁64	-13564
▁汽油	-13565
▁洁净	-13566
hand	-13567
▁bones	-13568
▁reveal	-13569
▁quietly	-13570
▁reprodu	-13571
▁mainland	-13572
▁concluded	-13573
▁Competition	-13574
▁communications	-13575
PL	-13576
▁兵	-13577
▁滤	-13578
apy	-13579
esc	-13580
▁缴付	-13581
▁语法	-13582
▁这名	-13583
keep	-13584
▁dirty	-13585
▁peoples	-13586
▁statutory	-13587
此之	-13588
▁少年	-13589
▁条文	-13590
▁童年	-13591
▁Fig	-13592
▁相当于	-13593
▁pian	-13594
▁substit	-13595
▁dialogue	-13596
▁destruction	-13597
▁膜	-13598
▁裙	-13599
斯科	-13600
nis	-13601
▁以免	-13602
▁解放	-13603
▁高于	-13604
▁目的地	-13605
▁巴勒斯坦	-13606
rating	-13607
▁manip	-13608
▁shore	-13609
▁Academ	-13610
▁distributed	-13611
▁仰	-13612
▁专用	-13613
▁哭泣	-13614
▁Def	-13615
▁陌生人	-13616
▁Qing	-13617
▁keen	-13618
▁badly	-13619
▁crown	-13620
▁disse	-13621
▁straw	-13622
▁attended	-13623
▁外观	-13624
▁平安	-13625
acher	-13626
▁forty	-13627
▁tourists	-13628
▁daughters	-13629
▁渗透	-13630
▁灰色	-13631
▁豪华	-13632
riers	-13633
▁frank	-13634
▁objectives	-13635
▁屠	-13636
▁拐	-13637
▁挡	-13638
▁航行	-13639
▁裁决	-13640
▁1992	-13641
▁mamm	-13642
▁plot	-13643
▁crazy	-13644
▁fifty	-13645
▁serves	-13646
▁猴	-13647
net	-13648
▁占据	-13649
▁大埔	-13650
▁英译	-13651
onym	-13652
▁perse	-13653
▁classic	-13654
▁movements	-13655
▁configuration	-13656
▁勾	-13657
▁唤	-13658
▁肚	-13659
▁写信	-13660
▁排水	-13661
▁一点点	-13662
▁payments	-13663
▁excessive	-13664
▁咱	-13665
▁殿	-13666
▁DC	-13667
▁折扣	-13668
▁最早	-13669
▁分析师	-13670
▁ruling	-13671
▁weapon	-13672
▁smiling	-13673
▁constitution	-13674
▁By	-13675
▁加利	-13676
▁指望	-13677
▁振动	-13678
▁衬衫	-13679
▁bicy	-13680
▁nowadays	-13681
▁integration	-13682
▁surrounding	-13683
▁水面	-13684
▁现行	-13685
▁disk	-13686
加哥	-13687
▁传媒	-13688
▁伯爵	-13689
oted	-13690
▁Dad	-13691
▁rib	-13692
▁taxi	-13693
▁parad	-13694
▁resid	-13695
▁strain	-13696
▁Charles	-13697
▁Finance	-13698
▁Vietnam	-13699
▁consistent	-13700
▁continuing	-13701
▁conventional	-13702
▁佳	-13703
▁徵	-13704
▁北美	-13705
▁多项	-13706
▁文物	-13707
▁翅膀	-13708
▁陈述	-13709
atre	-13710
▁Tib	-13711
▁南非	-13712
▁简化	-13713
▁饥饿	-13714
▁Pri	-13715
▁Why	-13716
▁Arts	-13717
▁Mike	-13718
▁gross	-13719
▁fisher	-13720
▁rolling	-13721
▁washing	-13722
▁coverage	-13723
▁neighbour	-13724
病毒	-13725
▁绝大	-13726
▁Agr	-13727
▁Yau	-13728
▁Prom	-13729
▁Digital	-13730
▁updated	-13731
▁一整	-13732
▁成千	-13733
▁马丁	-13734
▁Bet	-13735
rovers	-13736
▁Jiang	-13737
▁rocks	-13738
▁surge	-13739
▁collapse	-13740
▁entitled	-13741
▁experiments	-13742
▁Ur	-13743
▁新娘	-13744
▁震惊	-13745
▁McC	-13746
▁克林顿	-13747
▁理事会	-13748
▁luxury	-13749
▁repeat	-13750
▁stones	-13751
▁blessed	-13752
▁tobacco	-13753
▁imagination	-13754
▁蔓	-13755
武器	-13756
▁我爱	-13757
▁放入	-13758
▁此前	-13759
▁神奇	-13760
▁轻微	-13761
▁进攻	-13762
▁雨水	-13763
▁852	-13764
▁Job	-13765
▁1994	-13766
▁Engr	-13767
▁Garden	-13768
▁comply	-13769
▁somehow	-13770
▁arrested	-13771
▁punishment	-13772
▁structural	-13773
红色	-13774
▁63	-13775
▁一类	-13776
▁大纲	-13777
▁存放	-13778
▁火焰	-13779
print	-13780
storm	-13781
▁basketball	-13782
▁停下来	-13783
▁soph	-13784
▁ethnic	-13785
▁injured	-13786
▁纹	-13787
▁中环	-13788
▁人事	-13789
▁史蒂	-13790
▁篮球	-13791
raham	-13792
▁yard	-13793
▁flats	-13794
▁preparing	-13795
▁accompanied	-13796
▁publication	-13797
24	-13798
▁倾听	-13799
▁几十年	-13800
▁芝加哥	-13801
herent	-13802
▁knife	-13803
▁corresponding	-13804
▁俯	-13805
社会	-13806
▁折磨	-13807
▁树林	-13808
▁沉重	-13809
▁遵循	-13810
▁首日	-13811
▁Tal	-13812
▁tag	-13813
▁cord	-13814
▁Chicago	-13815
▁offence	-13816
RS	-13817
bl	-13818
▁仿真	-13819
▁判决	-13820
▁感恩	-13821
▁撤销	-13822
▁消极	-13823
▁热烈	-13824
arts	-13825
▁anxiety	-13826
▁Corporation	-13827
▁三角	-13828
▁侵犯	-13829
▁soup	-13830
▁Where	-13831
rations	-13832
▁courts	-13833
▁orange	-13834
▁premium	-13835
▁tension	-13836
▁regulatory	-13837
▁ultimately	-13838
▁unemployment	-13839
▁东京	-13840
▁家乡	-13841
▁诞生	-13842
▁Big	-13843
▁worn	-13844
▁meters	-13845
▁magnetic	-13846
▁凸	-13847
部长	-13848
▁WH	-13849
▁匹配	-13850
▁差别	-13851
▁接获	-13852
▁星球	-13853
▁最少	-13854
▁服用	-13855
▁洪水	-13856
▁瑞典	-13857
▁赞成	-13858
▁coc	-13859
▁mob	-13860
▁tel	-13861
▁无论如何	-13862
▁convin	-13863
▁prince	-13864
▁counsel	-13865
▁critics	-13866
▁合格	-13867
▁deals	-13868
▁winds	-13869
▁emissions	-13870
▁acceptable	-13871
▁三种	-13872
▁任命	-13873
▁传说	-13874
▁牛仔	-13875
▁doub	-13876
▁electro	-13877
▁皆	-13878
▁情景	-13879
▁脖子	-13880
▁选手	-13881
▁鞋子	-13882
gged	-13883
▁paralle	-13884
▁resolve	-13885
▁furthermore	-13886
We	-13887
▁缠	-13888
▁再生	-13889
▁小学	-13890
▁蛋糕	-13891
entine	-13892
▁aimed	-13893
▁logic	-13894
▁toile	-13895
▁utter	-13896
▁resume	-13897
▁RE	-13898
▁吃惊	-13899
▁四周	-13900
丽莎白	-13901
elled	-13902
▁pour	-13903
▁cable	-13904
▁conqu	-13905
▁psychological	-13906
▁图形	-13907
▁美妙	-13908
▁puzz	-13909
▁vice	-13910
▁伊丽莎白	-13911
▁tower	-13912
▁crying	-13913
▁anybody	-13914
▁dismiss	-13915
▁recommendations	-13916
▁使人	-13917
▁克莱	-13918
▁分裂	-13919
▁寿命	-13920
▁gest	-13921
▁Customs	-13922
▁disappear	-13923
▁effectiveness	-13924
▁磷	-13925
▁OC	-13926
▁一副	-13927
▁糖尿	-13928
post	-13929
▁Bab	-13930
▁Pot	-13931
emption	-13932
▁gained	-13933
▁generations	-13934
习惯	-13935
控制	-13936
▁清醒	-13937
▁Old	-13938
▁维生素	-13939
guard	-13940
▁Rail	-13941
▁Agric	-13942
▁advise	-13943
▁ancest	-13944
QL	-13945
保险	-13946
▁动机	-13947
▁好多	-13948
▁注入	-13949
▁航班	-13950
anes	-13951
▁okay	-13952
▁stead	-13953
▁Muslim	-13954
▁deploy	-13955
▁farmer	-13956
▁distant	-13957
▁describes	-13958
▁reception	-13959
▁developers	-13960
29	-13961
▁互动	-13962
▁年纪	-13963
▁虚假	-13964
▁遗产	-13965
▁领先	-13966
▁星期三	-13967
▁艾滋病	-13968
▁antib	-13969
▁memor	-13970
▁acquis	-13971
▁fierce	-13972
▁speakers	-13973
▁agriculture	-13974
▁柯	-13975
城市	-13976
▁十三	-13977
▁粒子	-13978
▁Bel	-13979
▁lun	-13980
▁申请书	-13981
▁auto	-13982
▁bike	-13983
▁bowl	-13984
▁bench	-13985
▁evident	-13986
▁periods	-13987
▁妨	-13988
rey	-13989
▁之际	-13990
▁从此	-13991
▁地政	-13992
▁暴风	-13993
▁楼梯	-13994
▁水质	-13995
▁灯光	-13996
wear	-13997
▁Squ	-13998
itzer	-13999
itarian	-14000
▁forgive	-14001
▁invitation	-14002
▁subsequent	-14003
▁芯	-14004
▁节约	-14005
case	-14006
▁Use	-14007
▁稳定性	-14008
▁jumped	-14009
▁capture	-14010
▁丽	-14011
▁肖	-14012
isk	-14013
▁地产	-14014
▁开口	-14015
▁想像	-14016
▁漫长	-14017
plant	-14018
▁dies	-14019
▁gard	-14020
▁Local	-14021
▁Tower	-14022
▁dying	-14023
▁dynam	-14024
▁conform	-14025
▁divorce	-14026
▁locations	-14027
▁maintaining	-14028
▁杆	-14029
▁住户	-14030
▁次数	-14031
bage	-14032
▁1980	-14033
▁irrit	-14034
▁headed	-14035
▁accused	-14036
▁shipping	-14037
fol	-14038
▁抛弃	-14039
▁相处	-14040
▁绘画	-14041
▁西北	-14042
▁成年人	-14043
▁alter	-14044
▁seeds	-14045
▁frozen	-14046
▁惨	-14047
▁冬季	-14048
▁几次	-14049
▁利息	-14050
▁化妆	-14051
▁卧室	-14052
icks	-14053
▁小册子	-14054
▁sock	-14055
ersion	-14056
▁waited	-14057
▁Eastern	-14058
▁glasses	-14059
▁composed	-14060
▁卑	-14061
VEL	-14062
▁所示	-14063
okyo	-14064
▁ignor	-14065
▁Republican	-14066
▁agricultural	-14067
▁患有	-14068
▁货柜	-14069
▁跑步	-14070
▁集合	-14071
▁Ext	-14072
▁Stan	-14073
irable	-14074
▁climb	-14075
idation	-14076
▁heavily	-14077
▁tourist	-14078
▁elections	-14079
▁returning	-14080
▁possession	-14081
▁achievement	-14082
▁拳	-14083
▁一首	-14084
▁精彩	-14085
▁谈谈	-14086
osph	-14087
▁价值观	-14088
▁成千上	-14089
ifier	-14090
▁cere	-14091
▁horn	-14092
▁Tibet	-14093
▁recre	-14094
▁fertil	-14095
▁controvers	-14096
ras	-14097
▁一级	-14098
▁亚太	-14099
▁元朗	-14100
▁水域	-14101
▁罕见	-14102
oust	-14103
page	-14104
▁dawn	-14105
ulator	-14106
▁boxes	-14107
▁乘坐	-14108
▁兴建	-14109
▁名义	-14110
▁实力	-14111
▁提及	-14112
▁vel	-14113
▁公共服务	-14114
▁Tokyo	-14115
▁attempts	-14116
▁breathing	-14117
▁ownership	-14118
▁停留	-14119
▁向上	-14120
▁潜力	-14121
▁gear	-14122
▁grows	-14123
▁split	-14124
▁soldier	-14125
联盟	-14126
脾气	-14127
ida	-14128
▁一艘	-14129
▁共产	-14130
▁开关	-14131
▁意愿	-14132
▁汇率	-14133
▁澳洲	-14134
▁纯粹	-14135
▁顺序	-14136
▁rivers	-14137
▁suspected	-14138
▁一架	-14139
aine	-14140
front	-14141
▁mask	-14142
▁Waste	-14143
▁Ceremony	-14144
▁Organization	-14145
top	-14146
▁乐队	-14147
▁例外	-14148
▁IBM	-14149
▁纺织品	-14150
itory	-14151
▁各种各样	-14152
terior	-14153
▁fired	-14154
▁shake	-14155
▁confront	-14156
▁上来	-14157
▁全都	-14158
▁诗歌	-14159
▁Chau	-14160
▁Inst	-14161
▁Press	-14162
▁Women	-14163
▁forming	-14164
▁staying	-14165
▁^	-14166
ora	-14167
▁CA	-14168
▁亨利	-14169
▁分解	-14170
▁试试	-14171
▁cha	-14172
▁irr	-14173
▁weld	-14174
▁lands	-14175
▁voters	-14176
▁Computer	-14177
▁consciousness	-14178
TD	-14179
▁砂	-14180
▁人为	-14181
▁均匀	-14182
▁观测	-14183
▁起源	-14184
▁安全性	-14185
eared	-14186
▁2012	-14187
▁vine	-14188
▁inherit	-14189
▁哥伦	-14190
▁强化	-14191
▁影像	-14192
▁腐败	-14193
▁跟随	-14194
▁我爱你	-14195
▁政治家	-14196
▁Hist	-14197
▁boom	-14198
▁roots	-14199
▁defeat	-14200
▁Commercial	-14201
▁accomplish	-14202
▁便利	-14203
▁垂直	-14204
▁扩散	-14205
▁走上	-14206
▁小女孩	-14207
▁designs	-14208
▁communities	-14209
▁万元	-14210
▁对面	-14211
▁移植	-14212
▁编写	-14213
▁sevent	-14214
▁enables	-14215
▁centuries	-14216
▁主导	-14217
▁动画	-14218
▁礼品	-14219
▁赞助	-14220
▁foolish	-14221
▁creature	-14222
▁produces	-14223
▁仙	-14224
▁挨	-14225
不出	-14226
▁专注	-14227
▁教室	-14228
▁数值	-14229
▁LIM	-14230
▁gau	-14231
▁voc	-14232
▁星期日	-14233
▁Swed	-14234
▁mice	-14235
▁array	-14236
▁earned	-14237
▁souvenir	-14238
▁acknowled	-14239
▁prosperity	-14240
▁合署	-14241
▁逮捕	-14242
▁利比亚	-14243
▁plug	-14244
▁成千上万	-14245
▁hotline	-14246
▁liberal	-14247
▁circular	-14248
▁锅	-14249
而易	-14250
▁剩余	-14251
▁执法	-14252
▁部份	-14253
▁jew	-14254
▁糖尿病	-14255
▁Phase	-14256
▁aspir	-14257
▁spaces	-14258
▁stepped	-14259
▁摊	-14260
▁单身	-14261
▁当日	-14262
▁防护	-14263
▁隔离	-14264
berry	-14265
limin	-14266
▁Jour	-14267
▁Ocean	-14268
▁annoy	-14269
▁weigh	-14270
▁centres	-14271
▁mixture	-14272
▁schemes	-14273
▁specify	-14274
▁adequate	-14275
ita	-14276
▁Ir	-14277
▁dw	-14278
▁上次	-14279
▁善良	-14280
▁毕竟	-14281
▁参议员	-14282
▁pity	-14283
▁pedest	-14284
▁awarded	-14285
▁permitted	-14286
▁Yi	-14287
▁保养	-14288
▁时常	-14289
▁比率	-14290
▁电流	-14291
▁Yan	-14292
nergy	-14293
▁竹	-14294
▁铸	-14295
西兰	-14296
olt	-14297
upt	-14298
▁修理	-14299
▁几周	-14300
▁检控	-14301
▁等于	-14302
▁老婆	-14303
▁代理人	-14304
▁convinced	-14305
▁happening	-14306
▁processed	-14307
▁extraordinary	-14308
ogy	-14309
▁防御	-14310
anny	-14311
ione	-14312
vard	-14313
▁Carol	-14314
▁viewed	-14315
▁muscles	-14316
▁neglect	-14317
▁qualified	-14318
▁恨	-14319
▁人造	-14320
▁制品	-14321
▁唱歌	-14322
▁多久	-14323
▁规格	-14324
▁legend	-14325
▁recruit	-14326
▁maintained	-14327
88	-14328
的话	-14329
▁一路	-14330
▁大地	-14331
▁电台	-14332
▁节奏	-14333
▁解除	-14334
aron	-14335
▁ugly	-14336
▁ending	-14337
▁channels	-14338
▁察	-14339
▁中东	-14340
break	-14341
▁Ange	-14342
▁Wood	-14343
▁Times	-14344
▁Church	-14345
▁cheese	-14346
▁chamber	-14347
▁feedback	-14348
iac	-14349
▁FA	-14350
▁三天	-14351
▁厌恶	-14352
▁担保	-14353
▁犹大	-14354
▁美洲	-14355
▁谋杀	-14356
▁une	-14357
▁epid	-14358
▁intent	-14359
▁harmful	-14360
▁creatures	-14361
▁initiative	-14362
▁Conservation	-14363
之处	-14364
布斯	-14365
▁musical	-14366
▁qualities	-14367
▁案例	-14368
▁考察	-14369
▁cin	-14370
▁tren	-14371
riving	-14372
▁天赋	-14373
▁序列	-14374
▁校长	-14375
▁格林	-14376
▁particulars	-14377
▁捐赠	-14378
▁眼镜	-14379
▁裁定	-14380
▁连结	-14381
alls	-14382
bery	-14383
▁Kwun	-14384
▁heritage	-14385
▁instinct	-14386
▁尴	-14387
▁岂	-14388
▁CU	-14389
▁fu	-14390
▁头部	-14391
▁少量	-14392
▁带领	-14393
▁报名	-14394
▁钢琴	-14395
inge	-14396
▁dign	-14397
▁performing	-14398
▁宴	-14399
▁盆	-14400
代表	-14401
▁不时	-14402
▁尴尬	-14403
aimed	-14404
rough	-14405
▁flew	-14406
▁Langu	-14407
▁Steve	-14408
▁remarks	-14409
▁舌	-14410
▁使命	-14411
▁密度	-14412
ario	-14413
atics	-14414
unate	-14415
▁shed	-14416
▁crash	-14417
▁gonna	-14418
▁survival	-14419
▁凌	-14420
▁专责	-14421
▁信件	-14422
▁日后	-14423
▁滥用	-14424
▁现状	-14425
erry	-14426
just	-14427
ulpt	-14428
▁Gal	-14429
▁美联储	-14430
▁hurry	-14431
▁excite	-14432
▁reluct	-14433
游戏	-14434
▁一丝	-14435
fish	-14436
▁---	-14437
ometer	-14438
▁screw	-14439
▁smiled	-14440
▁summary	-14441
▁explains	-14442
▁伏	-14443
五年	-14444
结果	-14445
▁控件	-14446
▁海盗	-14447
▁LIMIT	-14448
▁repro	-14449
▁attracted	-14450
▁remarkable	-14451
▁negotiations	-14452
▁年底	-14453
▁摩托	-14454
▁监视	-14455
▁魔法	-14456
zing	-14457
amine	-14458
▁obsc	-14459
▁Fisher	-14460
▁elected	-14461
▁whereas	-14462
▁Amendment	-14463
▁productivity	-14464
▁慷	-14465
▁考验	-14466
▁难题	-14467
arse	-14468
makers	-14469
▁comprom	-14470
▁separated	-14471
▁丛	-14472
成本	-14473
清楚	-14474
▁BR	-14475
▁初始	-14476
▁十七	-14477
▁变量	-14478
▁歌唱	-14479
▁违法	-14480
▁partly	-14481
▁enquiry	-14482
▁handsome	-14483
▁eliminate	-14484
▁马车	-14485
▁cam	-14486
▁artists	-14487
▁traders	-14488
▁disposal	-14489
▁settlement	-14490
▁虐	-14491
▁回复	-14492
▁笑容	-14493
obal	-14494
advant	-14495
▁bills	-14496
▁Secret	-14497
▁disorder	-14498
▁平面	-14499
▁慢性	-14500
shine	-14501
▁crops	-14502
▁Process	-14503
出去	-14504
bar	-14505
▁SP	-14506
▁六个	-14507
▁弯曲	-14508
▁第七	-14509
▁空气污染	-14510
▁liver	-14511
▁trace	-14512
▁clever	-14513
▁stages	-14514
iability	-14515
▁亚伯	-14516
▁借口	-14517
▁妇人	-14518
▁智力	-14519
▁最多	-14520
▁海底	-14521
▁预言	-14522
▁英译汉	-14523
▁walks	-14524
▁carrier	-14525
▁grateful	-14526
机会	-14527
▁IR	-14528
▁一款	-14529
▁外界	-14530
▁慷慨	-14531
▁权益	-14532
▁烟草	-14533
▁草地	-14534
▁逃避	-14535
onic	-14536
▁urged	-14537
▁Family	-14538
▁acceptance	-14539
▁successfully	-14540
▁佛罗	-14541
▁制备	-14542
▁战胜	-14543
▁民间	-14544
▁门徒	-14545
▁Bal	-14546
▁世界杯	-14547
▁pigs	-14548
ovation	-14549
▁Method	-14550
▁privile	-14551
▁manufacturers	-14552
▁氢	-14553
ado	-14554
▁储备	-14555
▁安置	-14556
▁Aud	-14557
▁Men	-14558
▁ray	-14559
▁tap	-14560
▁第二十	-14561
▁fare	-14562
▁rust	-14563
▁travell	-14564
▁pregnant	-14565
▁垫	-14566
▁客观	-14567
▁没人	-14568
▁洛杉	-14569
lers	-14570
▁Treatment	-14571
▁Ken	-14572
▁Mel	-14573
▁cav	-14574
▁shy	-14575
▁Jacob	-14576
▁throat	-14577
▁Privacy	-14578
▁reserves	-14579
▁辉	-14580
ota	-14581
▁一刻	-14582
▁央行	-14583
▁女王	-14584
▁我来	-14585
▁洗衣	-14586
▁迟到	-14587
▁顶部	-14588
▁cave	-14589
▁奥林匹克	-14590
▁spray	-14591
▁swall	-14592
▁sweat	-14593
▁deeper	-14594
▁identification	-14595
▁栖	-14596
▁夜间	-14597
▁物流	-14598
▁药品	-14599
days	-14600
opic	-14601
▁Dar	-14602
anned	-14603
▁seal	-14604
▁解决问题	-14605
ealous	-14606
▁holes	-14607
▁naked	-14608
▁scrap	-14609
▁agenda	-14610
liminary	-14611
▁pursuit	-14612
▁adjustment	-14613
▁notification	-14614
▁Fe	-14615
▁延续	-14616
▁当代	-14617
▁睡着	-14618
▁cyl	-14619
▁hey	-14620
▁Rest	-14621
ailing	-14622
▁tempor	-14623
▁welcom	-14624
▁mankind	-14625
▁∕	-14626
总统	-14627
规划	-14628
acc	-14629
▁导弹	-14630
▁Jon	-14631
▁hyg	-14632
▁assert	-14633
▁securities	-14634
▁栏	-14635
岗位	-14636
▁传达	-14637
▁意图	-14638
▁赐给	-14639
eman	-14640
oric	-14641
▁Rome	-14642
▁overt	-14643
▁vertical	-14644
▁邓	-14645
▁休闲	-14646
▁妨碍	-14647
▁广州	-14648
▁拥挤	-14649
▁教资	-14650
▁胳膊	-14651
▁菜单	-14652
▁随便	-14653
orer	-14654
▁bug	-14655
▁sth	-14656
▁chip	-14657
▁hadn	-14658
▁不可避免	-14659
▁LIMITED	-14660
公路	-14661
尼斯	-14662
▁渠道	-14663
▁示例	-14664
▁赛季	-14665
▁过分	-14666
ivals	-14667
▁Youth	-14668
▁usage	-14669
▁closing	-14670
▁shortly	-14671
▁哺	-14672
▁扬	-14673
▁蚊	-14674
而言	-14675
▁vo	-14676
▁alb	-14677
▁教资会	-14678
press	-14679
▁butt	-14680
itious	-14681
▁dozen	-14682
▁refuge	-14683
▁thrown	-14684
▁envelop	-14685
▁departure	-14686
▁instructions	-14687
▁潘	-14688
bec	-14689
▁保育	-14690
▁散发	-14691
▁柔软	-14692
▁进出口	-14693
pless	-14694
▁Kung	-14695
▁anch	-14696
▁bron	-14697
▁Pearl	-14698
▁inspired	-14699
▁prosecut	-14700
▁喧	-14701
▁坠	-14702
fly	-14703
▁招标	-14704
▁laz	-14705
friend	-14706
▁speaks	-14707
▁elegant	-14708
▁Customer	-14709
▁exercises	-14710
▁observation	-14711
▁announcement	-14712
IDS	-14713
yan	-14714
▁一股	-14715
▁会面	-14716
▁挖掘	-14717
▁摧毁	-14718
▁通胀	-14719
▁阴影	-14720
▁cosm	-14721
▁采取行动	-14722
▁Holly	-14723
▁dispute	-14724
▁protest	-14725
▁reminded	-14726
▁liability	-14727
▁capability	-14728
77	-14729
▁关节	-14730
▁救助	-14731
▁爱人	-14732
▁纪律	-14733
▁Pet	-14734
▁beef	-14735
▁humor	-14736
▁worthy	-14737
▁变为	-14738
▁恶劣	-14739
▁辖下	-14740
▁USA	-14741
▁克里斯	-14742
▁eaten	-14743
▁ghost	-14744
▁seminar	-14745
▁discharge	-14746
see	-14747
▁CT	-14748
▁坚强	-14749
▁引人	-14750
▁残酷	-14751
▁请问	-14752
life	-14753
rics	-14754
▁二十四	-14755
▁Orig	-14756
▁Louis	-14757
▁tries	-14758
▁voltage	-14759
▁enhanced	-14760
▁equipped	-14761
▁categories	-14762
▁occasionally	-14763
St	-14764
▁披露	-14765
▁生育	-14766
▁而成	-14767
▁这片	-14768
▁远程	-14769
▁tast	-14770
▁condem	-14771
▁horses	-14772
▁minded	-14773
▁executives	-14774
▁innovative	-14775
▁濒	-14776
蝴蝶	-14777
▁后悔	-14778
▁天才	-14779
▁悲剧	-14780
▁过后	-14781
▁Sov	-14782
▁glor	-14783
▁indo	-14784
▁rear	-14785
▁scream	-14786
▁constitu	-14787
▁requested	-14788
▁Investigation	-14789
▁益	-14790
▁Ye	-14791
▁住房	-14792
▁急性	-14793
▁苏联	-14794
ctic	-14795
▁milit	-14796
▁checking	-14797
▁monetary	-14798
thm	-14799
▁大厅	-14800
▁浓度	-14801
itudes	-14802
orship	-14803
▁Paper	-14804
▁怜	-14805
三年	-14806
▁区分	-14807
▁脚步	-14808
▁蔓延	-14809
▁解雇	-14810
▁Spirit	-14811
▁immune	-14812
▁intelligent	-14813
▁贬	-14814
▁CR	-14815
▁专题	-14816
▁倘若	-14817
▁局限	-14818
▁指明	-14819
▁球迷	-14820
▁要说	-14821
udge	-14822
▁bars	-14823
▁cure	-14824
▁hydro	-14825
▁Soviet	-14826
▁stretch	-14827
ictionary	-14828
▁operator	-14829
▁surrounded	-14830
▁investments	-14831
▁盟	-14832
▁会见	-14833
▁揭示	-14834
▁看不见	-14835
rategy	-14836
▁Ident	-14837
▁dates	-14838
▁dilig	-14839
▁meals	-14840
▁babies	-14841
▁lifted	-14842
▁Measures	-14843
▁不肯	-14844
▁前来	-14845
▁嘲笑	-14846
▁宁愿	-14847
▁Wen	-14848
illance	-14849
▁dishes	-14850
▁Federal	-14851
▁participant	-14852
▁大街	-14853
▁征服	-14854
▁想着	-14855
▁民事	-14856
▁螺旋	-14857
▁领取	-14858
▁小型张	-14859
▁志愿者	-14860
enery	-14861
plate	-14862
▁Bern	-14863
▁pitch	-14864
cription	-14865
▁crystal	-14866
▁passport	-14867
▁patience	-14868
▁gentleman	-14869
▁submission	-14870
ih	-14871
▁裸	-14872
▁交付	-14873
▁收回	-14874
▁狂热	-14875
▁Mot	-14876
▁Xin	-14877
▁Zeal	-14878
▁conj	-14879
▁mile	-14880
▁wages	-14881
▁rubber	-14882
▁traveling	-14883
▁professionals	-14884
▁中断	-14885
▁录像	-14886
▁航天	-14887
▁边境	-14888
▁时间表	-14889
tains	-14890
▁Jones	-14891
▁penet	-14892
▁errors	-14893
▁infant	-14894
▁堵	-14895
osy	-14896
▁住宿	-14897
▁偿还	-14898
▁研发	-14899
▁诊所	-14900
▁SME	-14901
▁por	-14902
▁经济学	-14903
▁dism	-14904
▁hack	-14905
▁ties	-14906
▁designer	-14907
▁suggestion	-14908
▁一门	-14909
▁打发	-14910
urse	-14911
▁Bob	-14912
▁copper	-14913
▁shrink	-14914
▁stranger	-14915
▁Statistics	-14916
▁replacement	-14917
▁依旧	-14918
▁提起	-14919
▁极度	-14920
▁这话	-14921
▁HKU	-14922
▁Tex	-14923
oding	-14924
▁folk	-14925
▁alien	-14926
▁miser	-14927
▁Spring	-14928
▁meteor	-14929
▁removal	-14930
▁ingredients	-14931
利用	-14932
aws	-14933
ued	-14934
▁大道	-14935
▁当年	-14936
▁放进	-14937
▁病例	-14938
▁通往	-14939
ariat	-14940
▁visa	-14941
▁Swiss	-14942
▁prayer	-14943
▁shooting	-14944
▁葬	-14945
▁听众	-14946
▁求职	-14947
▁随之	-14948
▁Luc	-14949
▁subt	-14950
▁Forum	-14951
▁drunk	-14952
▁immun	-14953
▁affair	-14954
▁Chapter	-14955
▁parallel	-14956
▁操纵	-14957
▁笑话	-14958
pass	-14959
▁Fact	-14960
▁slee	-14961
▁通货膨胀	-14962
▁brows	-14963
▁packed	-14964
▁suicide	-14965
DA	-14966
▁梳	-14967
▁不该	-14968
▁课堂	-14969
▁rival	-14970
▁Network	-14971
▁Strategy	-14972
▁drainage	-14973
▁lighting	-14974
▁supports	-14975
ga	-14976
▁晋	-14977
▁黏	-14978
▁保密	-14979
▁嘉莉	-14980
▁处置	-14981
▁染色	-14982
▁stub	-14983
▁appet	-14984
▁Annual	-14985
▁feather	-14986
▁Regulations	-14987
▁98	-14988
▁SS	-14989
▁交往	-14990
▁否定	-14991
▁处境	-14992
▁斯特	-14993
▁玩家	-14994
▁疲劳	-14995
▁落实	-14996
▁Text	-14997
▁valley	-14998
▁letting	-14999
▁assistant	-15000
▁association	-15001
▁踩	-15002
尔顿	-15003
.10	-15004
▁小镇	-15005
▁报酬	-15006
▁来临	-15007
▁皇帝	-15008
▁Wal	-15009
▁新西兰	-15010
▁bree	-15011
▁Judah	-15012
▁cruel	-15013
▁mystery	-15014
▁wireless	-15015
▁presidential	-15016
ige	-15017
▁批发	-15018
▁标题	-15019
▁Jul	-15020
▁wand	-15021
▁valve	-15022
▁opinions	-15023
▁addressed	-15024
▁shoulders	-15025
医生	-15026
▁会谈	-15027
▁感动	-15028
▁海港	-15029
▁罪恶	-15030
▁过多	-15031
mble	-15032
mond	-15033
▁参与者	-15034
▁洛杉矶	-15035
▁Link	-15036
▁radi	-15037
▁derived	-15038
CS	-15039
If	-15040
福利	-15041
▁盒子	-15042
▁蝴蝶	-15043
▁重组	-15044
▁镜头	-15045
ifies	-15046
▁dull	-15047
▁midst	-15048
▁fulfill	-15049
▁disadvant	-15050
▁technological	-15051
体系	-15052
uis	-15053
▁Ta	-15054
▁再见	-15055
▁天生	-15056
▁星星	-15057
▁180	-15058
▁Sheet	-15059
▁alumin	-15060
▁volcan	-15061
▁frequent	-15062
▁troubles	-15063
▁preferred	-15064
▁梯	-15065
▁淘	-15066
▁激进	-15067
▁设想	-15068
▁辞职	-15069
pread	-15070
▁auth	-15071
▁tenants	-15072
▁balanced	-15073
▁humanity	-15074
▁卸	-15075
▁坎	-15076
▁鸭	-15077
▁售价	-15078
▁总经理	-15079
arest	-15080
ichuan	-15081
▁wides	-15082
▁organs	-15083
▁contrad	-15084
▁弃	-15085
▁碎片	-15086
▁观塘	-15087
▁这使	-15088
▁Age	-15089
▁Lake	-15090
▁perm	-15091
▁Level	-15092
▁opens	-15093
▁bother	-15094
▁funded	-15095
▁Children	-15096
▁newspapers	-15097
▁specifically	-15098
▁contributions	-15099
▁朗	-15100
TER	-15101
▁汉语	-15102
▁看过	-15103
▁着手	-15104
▁tract	-15105
▁TRAVEL	-15106
▁Thomas	-15107
▁sculpt	-15108
▁ultimate	-15109
▁嫌	-15110
▁人性	-15111
▁大师	-15112
▁有名	-15113
anna	-15114
edia	-15115
▁女朋友	-15116
▁纳税人	-15117
ordan	-15118
▁Real	-15119
▁hire	-15120
▁menu	-15121
▁stiff	-15122
▁stroke	-15123
▁preserve	-15124
▁demonstrate	-15125
▁independence	-15126
ube	-15127
▁ol	-15128
▁北极	-15129
▁电路	-15130
▁jur	-15131
▁女孩子	-15132
▁carc	-15133
▁hook	-15134
▁mini	-15135
▁Legal	-15136
▁actor	-15137
▁dread	-15138
▁woods	-15139
vereign	-15140
aneously	-15141
▁expense	-15142
▁penalty	-15143
▁princess	-15144
▁sovereign	-15145
▁encouraging	-15146
you	-15147
▁变更	-15148
▁外科	-15149
▁手提	-15150
▁拜访	-15151
▁排名	-15152
▁数千	-15153
▁群众	-15154
▁alloc	-15155
assador	-15156
▁mature	-15157
▁ceiling	-15158
▁lecture	-15159
▁74	-15160
▁困惑	-15161
▁猜测	-15162
away	-15163
adium	-15164
▁ages	-15165
▁winner	-15166
▁誓	-15167
▁句子	-15168
▁城堡	-15169
▁宝宝	-15170
▁这类	-15171
▁麻醉	-15172
imal	-15173
▁190	-15174
▁dup	-15175
range	-15176
▁也就是说	-15177
▁Export	-15178
▁posted	-15179
▁Stephen	-15180
▁carries	-15181
▁thunder	-15182
▁laughter	-15183
▁一无	-15184
▁外出	-15185
▁缩短	-15186
▁起初	-15187
▁镜子	-15188
▁饮用	-15189
elly	-15190
▁Ten	-15191
▁deem	-15192
▁mold	-15193
▁mour	-15194
▁nutri	-15195
▁resemb	-15196
▁splend	-15197
▁Practice	-15198
▁rejected	-15199
▁philatelic	-15200
ada	-15201
▁拓展	-15202
▁整合	-15203
▁贵族	-15204
▁星期天	-15205
▁Cath	-15206
ionship	-15207
▁reflected	-15208
▁operational	-15209
TP	-15210
▁颠	-15211
▁产物	-15212
▁频繁	-15213
▁eld	-15214
▁nod	-15215
ulent	-15216
▁cogn	-15217
▁布什总统	-15218
▁spite	-15219
▁tennis	-15220
▁administr	-15221
▁admission	-15222
▁widespread	-15223
▁下滑	-15224
▁利亚	-15225
▁咱们	-15226
▁破裂	-15227
▁行程	-15228
▁话语	-15229
▁运转	-15230
iner	-15231
▁Bro	-15232
▁全球化	-15233
▁干什么	-15234
▁fond	-15235
▁Canton	-15236
▁excluding	-15237
▁虫	-15238
▁承办	-15239
▁无聊	-15240
▁经纪	-15241
▁诚信	-15242
heng	-15243
▁App	-15244
▁jet	-15245
▁罗伯特	-15246
ipher	-15247
▁Zealand	-15248
▁controlling	-15249
▁potentially	-15250
33	-15251
ema	-15252
▁不在	-15253
▁北方	-15254
▁平常	-15255
▁景象	-15256
▁议题	-15257
rage	-15258
▁URA	-15259
▁torn	-15260
▁faint	-15261
▁pound	-15262
▁Govern	-15263
▁Series	-15264
▁curric	-15265
▁passes	-15266
▁delicate	-15267
OP	-15268
▁腾	-15269
isp	-15270
▁分歧	-15271
▁成年	-15272
uity	-15273
▁cycl	-15274
vation	-15275
▁chrom	-15276
▁Notice	-15277
▁analys	-15278
▁simult	-15279
▁anymore	-15280
▁essence	-15281
▁tremend	-15282
▁reflects	-15283
▁intensity	-15284
▁primarily	-15285
▁civilization	-15286
▁凹	-15287
▁栽	-15288
▁芳	-15289
▁作战	-15290
▁时机	-15291
▁消灭	-15292
▁皇后	-15293
▁祖国	-15294
▁身材	-15295
中国家	-15296
▁ups	-15297
uated	-15298
▁发展中国家	-15299
▁Access	-15300
▁Global	-15301
▁optical	-15302
▁pushing	-15303
▁resident	-15304
▁Democratic	-15305
▁afterwards	-15306
▁declaration	-15307
▁appreciation	-15308
▁冲动	-15309
▁协定	-15310
▁宿舍	-15311
▁Kwai	-15312
▁restore	-15313
▁reservoir	-15314
▁personally	-15315
▁immigration	-15316
▁岸	-15317
▁开玩	-15318
▁Eve	-15319
▁Mur	-15320
erring	-15321
uition	-15322
▁Cross	-15323
▁Awards	-15324
▁incent	-15325
unicipal	-15326
bow	-15327
▁地质	-15328
▁封闭	-15329
▁硬件	-15330
grat	-15331
▁chlor	-15332
▁notion	-15333
▁suspended	-15334
▁substantial	-15335
显示	-15336
▁公元	-15337
▁嘴唇	-15338
▁电压	-15339
▁索引	-15340
▁预售	-15341
▁测量师	-15342
▁carp	-15343
▁golf	-15344
▁grey	-15345
▁considerable	-15346
制品	-15347
▁政权	-15348
▁有毒	-15349
▁注视	-15350
▁繁殖	-15351
▁鱼类	-15352
▁保险业	-15353
▁dragon	-15354
▁cultures	-15355
▁innocent	-15356
▁wherever	-15357
▁certificates	-15358
一点	-15359
产权	-15360
▁中午	-15361
▁喝酒	-15362
▁地盘	-15363
▁境内	-15364
▁感冒	-15365
▁搭配	-15366
▁政局	-15367
▁穿越	-15368
▁开玩笑	-15369
▁suck	-15370
▁namely	-15371
▁congrat	-15372
▁parameter	-15373
▁searching	-15374
▁分泌	-15375
▁导演	-15376
▁收缩	-15377
▁潜水	-15378
▁西九	-15379
▁wolf	-15380
▁nerve	-15381
fulness	-15382
▁commence	-15383
▁sequence	-15384
▁protecting	-15385
▁芭	-15386
联系	-15387
▁任期	-15388
▁安德	-15389
okes	-15390
itime	-15391
▁beam	-15392
▁purple	-15393
▁Islands	-15394
▁affects	-15395
▁Palestin	-15396
▁sections	-15397
▁signature	-15398
▁Foundation	-15399
▁伍	-15400
▁淹	-15401
▁饰	-15402
萨斯	-15403
oop	-15404
▁手册	-15405
▁走廊	-15406
ifer	-15407
▁Put	-15408
ulsion	-15409
▁Joint	-15410
▁Royal	-15411
▁Tsang	-15412
▁venue	-15413
▁athletes	-15414
▁captured	-15415
▁floating	-15416
▁oriented	-15417
▁broadcast	-15418
斯顿	-15419
▁举动	-15420
▁叶子	-15421
▁此项	-15422
▁队员	-15423
▁hint	-15424
▁Tsing	-15425
▁reven	-15426
▁harmony	-15427
▁radical	-15428
▁variable	-15429
▁temperatures	-15430
▁硕	-15431
isy	-15432
▁肩膀	-15433
▁部落	-15434
▁Cit	-15435
▁Los	-15436
ether	-15437
idity	-15438
▁Less	-15439
▁wealthy	-15440
▁concepts	-15441
▁unnecess	-15442
▁酷	-15443
尔特	-15444
nut	-15445
▁大致	-15446
▁子孙	-15447
▁聘用	-15448
▁hob	-15449
▁fails	-15450
▁Election	-15451
▁tendency	-15452
26	-15453
▁倡	-15454
西洋	-15455
▁下雨	-15456
▁界面	-15457
▁积累	-15458
▁Anti	-15459
▁Hung	-15460
▁chin	-15461
▁Branch	-15462
▁compat	-15463
▁suppor	-15464
▁mysterious	-15465
▁汗	-15466
▁贾	-15467
▁Ox	-15468
▁面向	-15469
▁Buddh	-15470
▁Jordan	-15471
▁economics	-15472
▁prescribed	-15473
▁丹麦	-15474
▁加密	-15475
▁双重	-15476
▁把握	-15477
▁Sem	-15478
▁pile	-15479
▁carriage	-15480
▁estimate	-15481
▁Australian	-15482
▁legislative	-15483
▁势力	-15484
▁好事	-15485
▁没想	-15486
▁火灾	-15487
▁狭窄	-15488
▁陆地	-15489
▁成员国	-15490
▁resort	-15491
▁Indones	-15492
▁islands	-15493
▁interior	-15494
▁捡	-15495
▁合伙	-15496
▁在职	-15497
▁相连	-15498
enger	-15499
▁gods	-15500
▁flame	-15501
▁burned	-15502
▁phones	-15503
ads	-15504
▁小麦	-15505
▁崇拜	-15506
▁村庄	-15507
atal	-15508
▁三分之一	-15509
unning	-15510
▁catal	-15511
▁inflamm	-15512
▁莉	-15513
▁初期	-15514
▁景观	-15515
▁犹豫	-15516
▁车站	-15517
▁运送	-15518
▁邮寄	-15519
conn	-15520
▁Ron	-15521
▁出租车	-15522
▁笔记本	-15523
▁经济体	-15524
▁Bible	-15525
▁firmly	-15526
▁deliber	-15527
▁nursing	-15528
▁creativity	-15529
▁贯	-15530
▁Labor	-15531
▁virtue	-15532
▁Valentine	-15533
▁intervention	-15534
TA	-15535
▁接纳	-15536
▁此刻	-15537
▁福音	-15538
▁过敏	-15539
▁ech	-15540
▁pep	-15541
▁meets	-15542
▁palace	-15543
▁Constit	-15544
▁Francis	-15545
▁invention	-15546
▁economists	-15547
▁calculation	-15548
▁transformation	-15549
▁涨	-15550
▁73	-15551
▁借助	-15552
▁区内	-15553
▁负债	-15554
▁市中心	-15555
▁统计调查	-15556
▁Nature	-15557
missions	-15558
▁citizen	-15559
▁anniversary	-15560
▁HS	-15561
▁便会	-15562
▁削弱	-15563
▁影子	-15564
▁稍微	-15565
▁Scott	-15566
▁Speed	-15567
▁wider	-15568
▁barely	-15569
▁compete	-15570
▁statist	-15571
▁choosing	-15572
▁thoroughly	-15573
▁浑	-15574
▁竖	-15575
▁脏	-15576
有力	-15577
▁一向	-15578
▁内存	-15579
▁哪怕	-15580
▁子宫	-15581
▁水分	-15582
▁消毒	-15583
arge	-15584
flow	-15585
idal	-15586
▁一方面	-15587
▁ignore	-15588
▁booking	-15589
▁formula	-15590
▁renewal	-15591
▁utility	-15592
▁abandoned	-15593
▁各方	-15594
▁国防	-15595
▁标识	-15596
▁课税	-15597
▁追踪	-15598
▁一分钟	-15599
▁化合物	-15600
▁小孩子	-15601
▁持有人	-15602
▁aston	-15603
▁Member	-15604
▁analyze	-15605
▁precision	-15606
▁榜	-15607
▁皇家	-15608
▁首要	-15609
▁Dou	-15610
▁Mill	-15611
▁knee	-15612
▁forests	-15613
▁websites	-15614
▁abilities	-15615
▁交叉	-15616
▁克里	-15617
▁入息	-15618
▁四处	-15619
▁弟弟	-15620
▁我家	-15621
▁AIDS	-15622
▁Tsim	-15623
▁Macao	-15624
▁shield	-15625
▁urgent	-15626
▁colored	-15627
▁aggressive	-15628
▁collaboration	-15629
▁牲	-15630
eav	-15631
▁mm	-15632
▁乃是	-15633
▁全力	-15634
▁带上	-15635
▁走路	-15636
▁noon	-15637
▁jointly	-15638
sey	-15639
▁两条	-15640
▁战士	-15641
▁放下	-15642
▁显现	-15643
▁犹如	-15644
▁生病	-15645
▁货品	-15646
yang	-15647
▁shoe	-15648
▁flows	-15649
▁polar	-15650
▁robot	-15651
▁underground	-15652
▁堕	-15653
辈子	-15654
▁古典	-15655
▁纸张	-15656
▁ost	-15657
acent	-15658
▁Scot	-15659
▁deck	-15660
▁fart	-15661
▁Susan	-15662
▁veter	-15663
▁endeav	-15664
▁scientist	-15665
合同	-15666
▁善于	-15667
▁雇用	-15668
▁embed	-15669
▁spots	-15670
▁swing	-15671
▁Agency	-15672
▁bubble	-15673
▁linear	-15674
▁propag	-15675
▁declare	-15676
▁grounds	-15677
▁parliament	-15678
▁亏	-15679
▁枕	-15680
▁应有	-15681
▁金色	-15682
▁Two	-15683
▁rab	-15684
▁注册处	-15685
▁frog	-15686
▁统计数字	-15687
▁incon	-15688
▁snake	-15689
▁lowest	-15690
▁compassion	-15691
▁二年	-15692
▁导航	-15693
▁灭绝	-15694
▁cum	-15695
▁区议会	-15696
▁查尔斯	-15697
▁Pack	-15698
▁safely	-15699
▁厄	-15700
▁枝	-15701
▁漆	-15702
▁口腔	-15703
▁四川	-15704
▁本国	-15705
▁膨胀	-15706
▁语音	-15707
▁无线电	-15708
amped	-15709
▁Mass	-15710
▁fest	-15711
▁tens	-15712
▁知识产权	-15713
▁blade	-15714
▁breaks	-15715
▁mighty	-15716
▁summit	-15717
▁satisfy	-15718
itzerland	-15719
▁acquired	-15720
▁encounter	-15721
▁lifestyle	-15722
▁packaging	-15723
▁suppliers	-15724
▁interaction	-15725
SA	-15726
gia	-15727
▁PL	-15728
▁预订	-15729
▁Bir	-15730
▁Conn	-15731
▁Prop	-15732
▁Chang	-15733
▁retrie	-15734
iological	-15735
▁artistic	-15736
▁substances	-15737
▁贮	-15738
▁CC	-15739
▁其后	-15740
▁卡尔	-15741
▁奉献	-15742
▁小伙	-15743
▁市长	-15744
▁Non	-15745
▁天然气	-15746
▁美国政府	-15747
▁Exper	-15748
▁freely	-15749
▁gender	-15750
▁revers	-15751
▁shower	-15752
▁tunnel	-15753
▁Perform	-15754
▁Language	-15755
▁冥	-15756
▁娶	-15757
▁三次	-15758
▁尾巴	-15759
▁抽烟	-15760
▁精心	-15761
▁身后	-15762
aria	-15763
▁看不到	-15764
▁honour	-15765
▁Dynasty	-15766
▁anxious	-15767
▁feeding	-15768
▁unhappy	-15769
▁dramatic	-15770
▁imprison	-15771
▁nutrition	-15772
▁叔	-15773
▁捉	-15774
▁撰	-15775
易斯	-15776
▁开启	-15777
▁神话	-15778
▁站点	-15779
pace	-15780
▁Hur	-15781
▁Army	-15782
▁caut	-15783
teries	-15784
▁Prime	-15785
▁Space	-15786
▁piano	-15787
▁acknowledge	-15788
cul	-15789
▁街头	-15790
▁MTR	-15791
▁马克思	-15792
▁lover	-15793
▁Jackson	-15794
▁belongs	-15795
▁Switzerland	-15796
▁restrictions	-15797
不足	-15798
▁加剧	-15799
▁图表	-15800
▁奢侈	-15801
▁弥补	-15802
▁熟练	-15803
▁维尔	-15804
▁超声	-15805
ambo	-15806
▁可行性	-15807
ormal	-15808
▁applies	-15809
▁despair	-15810
▁classical	-15811
va	-15812
▁氯	-15813
一致	-15814
贝尔	-15815
▁山上	-15816
▁歧视	-15817
▁马来	-15818
igue	-15819
▁Inn	-15820
aping	-15821
▁Sarah	-15822
▁Energy	-15823
▁ladies	-15824
▁Journal	-15825
▁adverse	-15826
▁inhabit	-15827
▁laughing	-15828
▁calculated	-15829
▁disappeared	-15830
▁浇	-15831
夫人	-15832
▁UR	-15833
▁上课	-15834
▁不适	-15835
▁甚么	-15836
quit	-15837
▁ampl	-15838
▁社会福利	-15839
▁Senate	-15840
▁warming	-15841
▁bathroom	-15842
▁dependent	-15843
▁坚决	-15844
▁就此	-15845
▁马拉	-15846
dered	-15847
▁hunger	-15848
▁reporter	-15849
▁条约	-15850
▁滑雪	-15851
▁蜡烛	-15852
▁西南	-15853
▁长长	-15854
▁闪烁	-15855
▁Amb	-15856
▁lia	-15857
▁首日封	-15858
hesis	-15859
▁Mars	-15860
▁poetry	-15861
▁sophistic	-15862
发性	-15863
▁88	-15864
▁亿元	-15865
▁你好	-15866
▁秋天	-15867
ancer	-15868
▁Mand	-15869
▁infer	-15870
▁trends	-15871
▁heating	-15872
▁actively	-15873
▁versions	-15874
▁Hollywood	-15875
▁boyfriend	-15876
▁enthusiasm	-15877
▁全家	-15878
▁摄入	-15879
▁本能	-15880
▁雷达	-15881
▁gay	-15882
▁jun	-15883
sters	-15884
▁seas	-15885
▁infin	-15886
▁recur	-15887
▁印第	-15888
▁捕捉	-15889
▁自主	-15890
airy	-15891
▁SQL	-15892
▁bom	-15893
▁una	-15894
▁加利福	-15895
▁合作伙伴	-15896
▁sized	-15897
▁revision	-15898
▁reporters	-15899
Ch	-15900
目标	-15901
褐色	-15902
▁一堆	-15903
▁到期	-15904
▁外汇	-15905
▁点燃	-15906
▁这块	-15907
▁Dom	-15908
▁NAS	-15909
▁Mach	-15910
▁farms	-15911
▁squee	-15912
inction	-15913
▁historic	-15914
▁instruction	-15915
▁传来	-15916
▁岁月	-15917
▁魔鬼	-15918
ifted	-15919
jamin	-15920
▁modest	-15921
▁nights	-15922
▁battery	-15923
▁厕	-15924
▁阀	-15925
▁险	-15926
▁增大	-15927
▁总有	-15928
▁授予	-15929
▁虐待	-15930
onel	-15931
▁Veh	-15932
▁印第安	-15933
▁gast	-15934
▁provin	-15935
▁rolled	-15936
▁Justice	-15937
▁lasting	-15938
▁Property	-15939
▁password	-15940
▁conclusions	-15941
▁一度	-15942
▁列车	-15943
▁平时	-15944
▁沉积	-15945
pool	-15946
▁Pen	-15947
▁一点儿	-15948
umble	-15949
▁bite	-15950
ensing	-15951
▁Staff	-15952
▁drama	-15953
▁eleph	-15954
▁superm	-15955
▁reverse	-15956
▁commodity	-15957
▁financing	-15958
▁neighborhood	-15959
▁嫉	-15960
▁沼	-15961
▁磅	-15962
事件	-15963
kel	-15964
▁冰箱	-15965
▁出门	-15966
▁升高	-15967
▁误解	-15968
omal	-15969
▁Maj	-15970
▁inh	-15971
▁杰克逊	-15972
▁高速公路	-15973
ailand	-15974
▁publicity	-15975
▁connections	-15976
▁interpretation	-15977
网络	-15978
▁华丽	-15979
▁占有	-15980
▁周二	-15981
▁灌木	-15982
ribe	-15983
▁CON	-15984
▁Poly	-15985
▁irre	-15986
▁Helen	-15987
▁clerk	-15988
▁holder	-15989
▁敞	-15990
▁矩	-15991
ola	-15992
▁两周	-15993
▁就让	-15994
▁搅拌	-15995
▁楼花	-15996
▁keys	-15997
▁Model	-15998
▁Little	-15999
▁hazard	-16000
▁liable	-16001
▁painted	-16002
▁earnings	-16003
▁accordingly	-16004
▁Di	-16005
▁SH	-16006
▁山顶	-16007
▁强壮	-16008
▁教导	-16009
▁英寸	-16010
▁多样性	-16011
osity	-16012
▁diox	-16013
▁obey	-16014
▁patent	-16015
▁crowded	-16016
▁synchron	-16017
▁Prevention	-16018
▁threatened	-16019
▁expressions	-16020
▁preliminary	-16021
ka	-16022
学金	-16023
rix	-16024
▁发光	-16025
▁名人	-16026
▁岛屿	-16027
▁指令	-16028
▁按摩	-16029
▁邻近	-16030
▁生产力	-16031
▁Effect	-16032
▁Analysis	-16033
▁directed	-16034
▁approaches	-16035
rd	-16036
不得	-16037
▁67	-16038
▁Ha	-16039
▁假装	-16040
▁固体	-16041
▁汇报	-16042
▁疗法	-16043
▁上个月	-16044
▁joke	-16045
▁roles	-16046
position	-16047
▁Sichuan	-16048
▁founded	-16049
▁segment	-16050
▁beneficial	-16051
▁饿	-16052
▁ow	-16053
▁世人	-16054
▁业余	-16055
▁很久	-16056
▁手上	-16057
▁木材	-16058
▁福特	-16059
▁旅游业	-16060
ontal	-16061
▁legit	-16062
▁locked	-16063
▁Address	-16064
▁Angeles	-16065
▁Johnson	-16066
▁listened	-16067
▁pregnancy	-16068
▁reflection	-16069
90	-16070
▁SU	-16071
▁动荡	-16072
▁培育	-16073
▁备忘	-16074
▁将近	-16075
▁广阔	-16076
▁间接	-16077
▁看电视	-16078
liness	-16079
▁harsh	-16080
▁acquire	-16081
▁lending	-16082
▁certification	-16083
▁减低	-16084
▁样式	-16085
oven	-16086
▁membr	-16087
▁boring	-16088
▁sacrific	-16089
▁similarly	-16090
FS	-16091
▁俗	-16092
▁爷	-16093
▁菌	-16094
▁虔	-16095
▁Sk	-16096
▁一枚	-16097
▁男士	-16098
▁起床	-16099
iana	-16100
▁自动化	-16101
▁1993	-16102
▁scal	-16103
atural	-16104
stairs	-16105
▁curve	-16106
▁shalt	-16107
▁rental	-16108
▁wished	-16109
▁directions	-16110
▁discussions	-16111
PR	-16112
莱坞	-16113
▁中部	-16114
▁偶像	-16115
▁协作	-16116
▁工会	-16117
▁恒星	-16118
▁碰撞	-16119
▁答复	-16120
▁西贡	-16121
▁车子	-16122
ashes	-16123
▁Pier	-16124
▁toys	-16125
essions	-16126
▁Country	-16127
▁partial	-16128
▁Canadian	-16129
▁hydrogen	-16130
▁treating	-16131
▁gathering	-16132
▁上方	-16133
▁潮湿	-16134
▁颁奖	-16135
igate	-16136
▁Fred	-16137
▁dried	-16138
▁incom	-16139
▁scarce	-16140
▁stabil	-16141
▁emerged	-16142
▁revised	-16143
▁spirits	-16144
▁directors	-16145
▁initially	-16146
▁voluntary	-16147
▁隆	-16148
四年	-16149
意见	-16150
▁市建	-16151
▁彩色	-16152
▁纳入	-16153
▁语文	-16154
▁院子	-16155
ouch	-16156
▁换句话	-16157
▁gramm	-16158
▁defence	-16159
▁graduates	-16160
▁machinery	-16161
感谢	-16162
▁ii	-16163
▁缘故	-16164
endar	-16165
▁Flor	-16166
▁Four	-16167
▁leak	-16168
▁服务中心	-16169
▁Valley	-16170
▁bullet	-16171
▁retain	-16172
▁assured	-16173
▁Thailand	-16174
▁adoption	-16175
▁households	-16176
▁flexibility	-16177
▁掠	-16178
▁绅	-16179
▁一夜	-16180
▁战场	-16181
▁预备	-16182
▁mit	-16183
▁Expo	-16184
▁damp	-16185
▁laug	-16186
▁arise	-16187
▁flavor	-16188
▁Standard	-16189
▁licensed	-16190
▁manufacturer	-16191
▁62	-16192
▁Sn	-16193
▁体会	-16194
▁启用	-16195
▁明日	-16196
▁融入	-16197
▁货运	-16198
▁限度	-16199
▁900	-16200
▁Nan	-16201
▁Disc	-16202
▁Rock	-16203
▁Champ	-16204
▁Three	-16205
▁grief	-16206
▁saith	-16207
▁warrant	-16208
▁protective	-16209
▁偏见	-16210
▁王国	-16211
▁琼斯	-16212
▁瞬间	-16213
▁Wil	-16214
archy	-16215
▁Latin	-16216
▁Surveyor	-16217
▁enjoying	-16218
▁Commander	-16219
▁recording	-16220
满意	-16221
aka	-16222
izz	-16223
▁居然	-16224
▁应变	-16225
▁施行	-16226
▁没法	-16227
▁激素	-16228
oons	-16229
▁Conc	-16230
▁Marx	-16231
icular	-16232
▁patri	-16233
▁layers	-16234
▁postal	-16235
▁jealous	-16236
▁intermed	-16237
▁sunshine	-16238
▁雀	-16239
▁净化	-16240
▁单纯	-16241
▁变动	-16242
▁哺乳	-16243
▁成效	-16244
▁抽象	-16245
▁挣扎	-16246
▁珠宝	-16247
▁美食	-16248
▁课题	-16249
▁Tam	-16250
▁高等教育	-16251
▁nurse	-16252
▁sauce	-16253
▁cooling	-16254
▁disturb	-16255
▁declined	-16256
▁呵	-16257
▁咳	-16258
▁辣	-16259
▁二级	-16260
▁人际	-16261
▁信托	-16262
▁墙壁	-16263
ugal	-16264
▁有效期	-16265
liest	-16266
▁bail	-16267
▁metab	-16268
▁topics	-16269
esthetic	-16270
▁hunting	-16271
▁landing	-16272
访者	-16273
ini	-16274
▁击败	-16275
▁变革	-16276
▁商场	-16277
▁商标	-16278
▁恶性	-16279
▁数百	-16280
▁温室	-16281
▁货车	-16282
▁远处	-16283
▁逗留	-16284
▁闻名	-16285
▁130	-16286
anted	-16287
igrants	-16288
▁denied	-16289
▁separation	-16290
▁举措	-16291
▁仍旧	-16292
▁伤口	-16293
▁做事	-16294
▁取出	-16295
▁填妥	-16296
▁廉价	-16297
▁推翻	-16298
▁辩护	-16299
What	-16300
▁Nav	-16301
▁詹姆斯	-16302
opher	-16303
woman	-16304
▁vend	-16305
▁hosts	-16306
▁buyers	-16307
▁refund	-16308
▁adventure	-16309
▁struggling	-16310
▁捆	-16311
▁蓄	-16312
▁pm	-16313
▁开设	-16314
▁波兰	-16315
▁祖父	-16316
▁雕刻	-16317
isms	-16318
▁abn	-16319
▁avian	-16320
▁laughed	-16321
▁grandmother	-16322
EF	-16323
agg	-16324
▁基建	-16325
▁转过	-16326
▁Fre	-16327
umbled	-16328
▁Cover	-16329
▁deaths	-16330
▁intend	-16331
▁phosph	-16332
▁tomato	-16333
▁妥善	-16334
▁已知	-16335
▁无比	-16336
▁比利	-16337
▁大西洋	-16338
▁精神病	-16339
▁glance	-16340
▁Guangzhou	-16341
▁photograp	-16342
▁叹	-16343
多数	-16344
▁书写	-16345
▁体积	-16346
▁契约	-16347
▁延迟	-16348
▁数以	-16349
▁无知	-16350
▁留给	-16351
▁白人	-16352
▁示威	-16353
▁End	-16354
▁fled	-16355
▁pond	-16356
▁操作系统	-16357
▁管理人员	-16358
▁vivid	-16359
▁Mongol	-16360
▁downloaded	-16361
▁supervision	-16362
▁咒	-16363
精神	-16364
▁交互	-16365
▁前后	-16366
▁我用	-16367
▁法老	-16368
▁灵感	-16369
▁祖先	-16370
▁落后	-16371
lock	-16372
▁BBC	-16373
▁国务院	-16374
▁packing	-16375
▁vulnerable	-16376
▁Agriculture	-16377
▁expenditure	-16378
▁胖	-16379
▁家务	-16380
▁无力	-16381
▁沙滩	-16382
▁约定	-16383
▁绅士	-16384
▁键盘	-16385
▁老年人	-16386
▁Mail	-16387
▁skip	-16388
▁加利福尼亚	-16389
▁checks	-16390
▁terminal	-16391
▁licensing	-16392
▁organisation	-16393
PC	-16394
▁一连	-16395
▁生动	-16396
▁硬币	-16397
▁空调	-16398
ylon	-16399
▁创造性	-16400
▁Kwan	-16401
▁Texas	-16402
▁admire	-16403
▁ma	-16404
▁丝毫	-16405
▁主教	-16406
▁分数	-16407
▁口语	-16408
▁地狱	-16409
▁推迟	-16410
▁脑子	-16411
▁span	-16412
▁Systems	-16413
▁beloved	-16414
▁secrets	-16415
不安	-16416
用品	-16417
▁一顿	-16418
▁不然	-16419
▁忧虑	-16420
▁政党	-16421
▁日志	-16422
▁正义	-16423
▁永不	-16424
▁珍惜	-16425
▁赚钱	-16426
▁cul	-16427
▁barg	-16428
▁换句话说	-16429
▁queen	-16430
▁enclosed	-16431
▁diversity	-16432
▁injection	-16433
▁搁	-16434
▁77	-16435
▁89	-16436
▁享用	-16437
▁坚固	-16438
▁政客	-16439
▁珍妮	-16440
▁盈利	-16441
▁获胜	-16442
▁著作	-16443
ifting	-16444
▁repay	-16445
▁dining	-16446
▁vitamin	-16447
▁wrapped	-16448
▁neighbors	-16449
▁坑	-16450
▁敏捷	-16451
▁有否	-16452
▁润滑	-16453
▁爱德	-16454
umph	-16455
▁1.2	-16456
after	-16457
▁Holy	-16458
▁cats	-16459
▁exit	-16460
▁transf	-16461
otherapy	-16462
▁binding	-16463
▁sisters	-16464
▁Atlantic	-16465
▁supervis	-16466
▁Population	-16467
▁嫉妒	-16468
▁树上	-16469
▁补贴	-16470
▁COM	-16471
▁ward	-16472
▁结果显示	-16473
▁thermal	-16474
▁convenience	-16475
▁Broadcasting	-16476
▁satisfactory	-16477
教徒	-16478
fit	-16479
▁中说	-16480
▁嘴里	-16481
▁摩擦	-16482
▁颁发	-16483
▁Sin	-16484
▁段时间	-16485
▁银行家	-16486
andal	-16487
asive	-16488
▁gamb	-16489
ignment	-16490
▁cattle	-16491
▁Leisure	-16492
▁stimulus	-16493
▁哈佛	-16494
▁坟墓	-16495
▁填充	-16496
▁学费	-16497
▁并发	-16498
▁爱国	-16499
▁dip	-16500
▁交易所	-16501
▁欧元区	-16502
holder	-16503
rupted	-16504
▁Urban	-16505
▁summar	-16506
▁crossed	-16507
▁sunlight	-16508
合作	-16509
▁七个	-16510
▁城镇	-16511
▁带回	-16512
▁截止	-16513
▁棒球	-16514
▁沙发	-16515
▁生涯	-16516
▁维多	-16517
▁防治	-16518
▁备忘录	-16519
▁prox	-16520
▁vain	-16521
▁gains	-16522
▁hills	-16523
▁reass	-16524
▁rises	-16525
▁retired	-16526
▁shipment	-16527
▁collecting	-16528
增长	-16529
▁峰会	-16530
▁照明	-16531
▁统筹	-16532
▁行使	-16533
▁好莱坞	-16534
▁Kenn	-16535
▁二零零八年	-16536
▁Benjamin	-16537
▁authorized	-16538
▁巫	-16539
▁晒	-16540
▁番	-16541
▁胰	-16542
知识	-16543
▁Py	-16544
▁几种	-16545
▁差距	-16546
▁线路	-16547
▁裤子	-16548
▁Max	-16549
▁Vill	-16550
▁grie	-16551
▁recept	-16552
▁charity	-16553
▁collective	-16554
▁ecological	-16555
▁锡	-16556
▁争吵	-16557
▁姿势	-16558
▁悄悄	-16559
▁拉丁	-16560
▁挪威	-16561
▁支配	-16562
▁gor	-16563
▁一无所	-16564
▁放射性	-16565
onder	-16566
▁wars	-16567
▁forum	-16568
▁Virgin	-16569
▁toilet	-16570
▁Florida	-16571
▁deficit	-16572
▁flowing	-16573
▁talents	-16574
55	-16575
ns	-16576
▁煎	-16577
▁粪	-16578
规则	-16579
▁AL	-16580
▁Cy	-16581
▁MS	-16582
▁亲戚	-16583
▁坚信	-16584
▁算是	-16585
▁精英	-16586
▁钢铁	-16587
bound	-16588
▁ange	-16589
▁math	-16590
▁taxp	-16591
abetes	-16592
▁audit	-16593
▁calib	-16594
▁weren	-16595
ascular	-16596
▁seized	-16597
▁Records	-16598
▁signing	-16599
作家	-16600
▁礼拜	-16601
▁行事	-16602
▁Cast	-16603
▁foss	-16604
▁ware	-16605
▁steal	-16606
▁Compan	-16607
▁insure	-16608
▁makers	-16609
▁phrase	-16610
▁residence	-16611
▁Philatelic	-16612
tt	-16613
▁国有	-16614
▁平民	-16615
▁流量	-16616
▁秩序	-16617
roid	-16618
tles	-16619
▁Att	-16620
▁企业家	-16621
▁CUHK	-16622
▁sewage	-16623
▁desired	-16624
▁programming	-16625
▁贩	-16626
得多	-16627
▁保健	-16628
▁微小	-16629
▁来讲	-16630
▁法令	-16631
▁理智	-16632
▁老年	-16633
▁迁移	-16634
▁鸟类	-16635
▁ads	-16636
worth	-16637
▁Room	-16638
▁gran	-16639
▁二氧化碳	-16640
▁香港特区	-16641
▁exped	-16642
▁meter	-16643
▁Senior	-16644
▁rhythm	-16645
▁endless	-16646
▁handled	-16647
▁volunteers	-16648
▁傲	-16649
范围	-16650
▁受过	-16651
▁水晶	-16652
▁直升	-16653
▁默认	-16654
oves	-16655
quet	-16656
▁110	-16657
▁Ang	-16658
▁Now	-16659
▁soy	-16660
▁toy	-16661
▁香港大学	-16662
▁diver	-16663
▁fancy	-16664
▁stain	-16665
▁interv	-16666
▁induced	-16667
▁cigarette	-16668
▁酶	-16669
健康	-16670
▁奋斗	-16671
▁1.1	-16672
▁gut	-16673
▁ineff	-16674
▁generous	-16675
▁homework	-16676
▁midnight	-16677
▁hospitals	-16678
▁excitement	-16679
▁Republicans	-16680
▁corporation	-16681
▁奄	-16682
▁盼	-16683
▁一批	-16684
▁中介	-16685
▁人能	-16686
▁倾斜	-16687
▁厘米	-16688
▁盘子	-16689
▁Macau	-16690
▁dense	-16691
▁scenes	-16692
▁mosquit	-16693
▁assigned	-16694
▁computing	-16695
▁grandfather	-16696
eek	-16697
▁作物	-16698
▁天内	-16699
▁按揭	-16700
▁排列	-16701
▁海湾	-16702
▁电源	-16703
▁lord	-16704
ortion	-16705
▁towns	-16706
▁jacket	-16707
▁lovers	-16708
▁Arrange	-16709
▁绵	-16710
大会	-16711
管局	-16712
awn	-16713
▁一体	-16714
▁塑造	-16715
▁对应	-16716
atis	-16717
inth	-16718
raul	-16719
▁市建局	-16720
gical	-16721
▁resum	-16722
▁sorts	-16723
ifferent	-16724
▁displays	-16725
▁engineer	-16726
▁governance	-16727
▁恳	-16728
一天	-16729
[...]
